{
  "version": "1.0",
  "truncation": null,
  "padding": null,
  "added_tokens": [
    {
      "id": 0,
      "content": "<|endoftext|>",
      "single_word": false,
      "lstrip": false,
      "rstrip": false,
      "normalized": false,
      "special": true
    },
    {
      "id": 1,
      "content": "<|im_start|>",
      "single_word": false,
      "lstrip": false,
      "rstrip": false,
      "normalized": false,
      "special": true
    },
    {
      "id": 2,
      "content": "<|im_end|>",
      "single_word": false,
      "lstrip": false,
      "rstrip": false,
      "normalized": false,
      "special": true
    },
    {
      "id": 3,
      "content": "<|object_ref_start|>",
      "single_word": false,
      "lstrip": false,
      "rstrip": false,
      "normalized": false,
      "special": true
    },
    {
      "id": 4,
      "content": "<|object_ref_end|>",
      "single_word": false,
      "lstrip": false,
      "rstrip": false,
      "normalized": false,
      "special": true
    },
    {
      "id": 5,
      "content": "<|box_start|>",
      "single_word": false,
      "lstrip": false,
      "rstrip": false,
      "normalized": false,
      "special": true
    },
    {
      "id": 6,
      "content": "<|box_end|>",
      "single_word": false,
      "lstrip": false,
      "rstrip": false,
      "normalized": false,
      "special": true
    },
    {
      "id": 7,
      "content": "<|quad_start|>",
      "single_word": false,
      "lstrip": false,
      "rstrip": false,
      "normalized": false,
      "special": true
    },
    {
      "id": 8,
      "content": "<|quad_end|>",
      "single_word": false,
      "lstrip": false,
      "rstrip": false,
      "normalized": false,
      "special": true
    },
    {
      "id": 9,
      "content": "<|vision_start|>",
      "single_word": false,
      "lstrip": false,
      "rstrip": false,
      "normalized": false,
      "special": true
    },
    {
      "id": 10,
      "content": "<|vision_end|>",
      "single_word": false,
      "lstrip": false,
      "rstrip": false,
      "normalized": false,
      "special": true
    },
    {
      "id": 11,
      "content": "<|vision_pad|>",
      "single_word": false,
      "lstrip": false,
      "rstrip": false,
      "normalized": false,
      "special": true
    },
    {
      "id": 12,
      "content": "<|image_pad|>",
      "single_word": false,
      "lstrip": false,
      "rstrip": false,
      "normalized": false,
      "special": true
    },
    {
      "id": 13,
      "content": "<|video_pad|>",
      "single_word": false,
      "lstrip": false,
      "rstrip": false,
      "normalized": false,
      "special": true
    },
    {
      "id": 14,
      "content": "<|audio_start|>",
      "single_word": false,
      "lstrip": false,
      "rstrip": false,
      "normalized": false,
      "special": true
    },
    {
      "id": 15,
      "content": "<|audio_end|>",
      "single_word": false,
      "lstrip": false,
      "rstrip": false,
      "normalized": false,
      "special": true
    },
    {
      "id": 16,
      "content": "<|audio_pad|>",
      "single_word": false,
      "lstrip": false,
      "rstrip": false,
      "normalized": false,
      "special": true
    },
    {
      "id": 17,
      "content": "<tts_pad>",
      "single_word": false,
      "lstrip": false,
      "rstrip": false,
      "normalized": false,
      "special": true
    },
    {
      "id": 18,
      "content": "<tts_text_bos>",
      "single_word": false,
      "lstrip": false,
      "rstrip": false,
      "normalized": false,
      "special": true
    },
    {
      "id": 19,
      "content": "<tts_text_eod>",
      "single_word": false,
      "lstrip": false,
      "rstrip": false,
      "normalized": false,
      "special": true
    },
    {
      "id": 20,
      "content": "<tts_text_bos_single>",
      "single_word": false,
      "lstrip": false,
      "rstrip": false,
      "normalized": false,
      "special": true
    },
    {
      "id": 21,
      "content": "<tool_call>",
      "single_word": false,
      "lstrip": false,
      "rstrip": false,
      "normalized": false,
      "special": false
    },
    {
      "id": 22,
      "content": "</tool_call>",
      "single_word": false,
      "lstrip": false,
      "rstrip": false,
      "normalized": false,
      "special": false
    },
    {
      "id": 23,
      "content": "<tool_response>",
      "single_word": false,
      "lstrip": false,
      "rstrip": false,
      "normalized": false,
      "special": false
    },
    {
      "id": 24,
      "content": "</tool_response>",
      "single_word": false,
      "lstrip": false,
      "rstrip": false,
      "normalized": false,
      "special": false
    },
    {
      "id": 25,
      "content": "<think>",
      "single_word": false,
      "lstrip": false,
      "rstrip": false,
      "normalized": false,
      "special": false
    },
    {
      "id": 26,
      "content": "</think>",
      "single_word": false,
      "lstrip": false,
      "rstrip": false,
      "normalized": false,
      "special": false
    },
    {
      "id": 27,
      "content": "<|buffer1|>",
      "single_word": false,
      "lstrip": false,
      "rstrip": false,
      "normalized": false,
      "special": false
    },
    {
      "id": 28,
      "content": "<|buffer2|>",
      "single_word": false,
      "lstrip": false,
      "rstrip": false,
      "normalized": false,
      "special": false
    },
    {
      "id": 29,
      "content": "<|buffer3|>",
      "single_word": false,
      "lstrip": false,
      "rstrip": false,
      "normalized": false,
      "special": false
    },
    {
      "id": 30,
      "content": "<|buffer4|>",
      "single_word": false,
      "lstrip": false,
      "rstrip": false,
      "normalized": false,
      "special": false
    },
    {
      "id": 31,
      "content": "<|buffer5|>",
      "single_word": false,
      "lstrip": false,
      "rstrip": false,
      "normalized": false,
      "special": false
    },
    {
      "id": 32,
      "content": "<|buffer6|>",
      "single_word": false,
      "lstrip": false,
      "rstrip": false,
      "normalized": false,
      "special": false
    },
    {
      "id": 33,
      "content": "<|buffer7|>",
      "single_word": false,
      "lstrip": false,
      "rstrip": false,
      "normalized": false,
      "special": false
    },
    {
      "id": 34,
      "content": "<|buffer8|>",
      "single_word": false,
      "lstrip": false,
      "rstrip": false,
      "normalized": false,
      "special": false
    },
    {
      "id": 35,
      "content": "<|buffer9|>",
      "single_word": false,
      "lstrip": false,
      "rstrip": false,
      "normalized": false,
      "special": false
    }
  ],
  "normalizer": null,
  "pre_tokenizer": {
    "type": "ByteLevel",
    "add_prefix_space": false,
    "trim_offsets": true,
    "use_regex": true
  },
  "post_processor": null,
  "decoder": {
    "type": "ByteLevel",
    "add_prefix_space": true,
    "trim_offsets": true,
    "use_regex": true
  },
  "model": {
    "type": "BPE",
    "dropout": null,
    "unk_token": null,
    "continuing_subword_prefix": null,
    "end_of_word_suffix": null,
    "fuse_unk": false,
    "byte_fallback": false,
    "ignore_merges": false,
    "vocab": {
      "<|endoftext|>": 0,
      "<|im_start|>": 1,
      "<|im_end|>": 2,
      "<|object_ref_start|>": 3,
      "<|object_ref_end|>": 4,
      "<|box_start|>": 5,
      "<|box_end|>": 6,
      "<|quad_start|>": 7,
      "<|quad_end|>": 8,
      "<|vision_start|>": 9,
      "<|vision_end|>": 10,
      "<|vision_pad|>": 11,
      "<|image_pad|>": 12,
      "<|video_pad|>": 13,
      "<|audio_start|>": 14,
      "<|audio_end|>": 15,
      "<|audio_pad|>": 16,
      "<tts_pad>": 17,
      "<tts_text_bos>": 18,
      "<tts_text_eod>": 19,
      "<tts_text_bos_single>": 20,
      "<tool_call>": 21,
      "</tool_call>": 22,
      "<tool_response>": 23,
      "</tool_response>": 24,
      "<think>": 25,
      "</think>": 26,
      "<|buffer1|>": 27,
      "<|buffer2|>": 28,
      "<|buffer3|>": 29,
      "<|buffer4|>": 30,
      "<|buffer5|>": 31,
      "<|buffer6|>": 32,
      "<|buffer7|>": 33,
      "<|buffer8|>": 34,
      "<|buffer9|>": 35,
      "!": 36,
      "\"": 37,
      "#": 38,
      "$": 39,
      "%": 40,
      "&": 41,
      "'": 42,
      "(": 43,
      ")": 44,
      "*": 45,
      "+": 46,
      ",": 47,
      "-": 48,
      ".": 49,
      "/": 50,
      "0": 51,
      "1": 52,
      "2": 53,
      "3": 54,
      "4": 55,
      "5": 56,
      "6": 57,
      "7": 58,
      "8": 59,
      "9": 60,
      ":": 61,
      ";": 62,
      "<": 63,
      "=": 64,
      ">": 65,
      "?": 66,
      "@": 67,
      "A": 68,
      "B": 69,
      "C": 70,
      "D": 71,
      "E": 72,
      "F": 73,
      "G": 74,
      "H": 75,
      "I": 76,
      "J": 77,
      "K": 78,
      "L": 79,
      "M": 80,
      "N": 81,
      "O": 82,
      "P": 83,
      "Q": 84,
      "R": 85,
      "S": 86,
      "T": 87,
      "U": 88,
      "V": 89,
      "W": 90,
      "X": 91,
      "Y": 92,
      "Z": 93,
      "[": 94,
      "\\": 95,
      "]": 96,
      "^": 97,
      "_": 98,
      "`": 99,
      "a": 100,
      "b": 101,
      "c": 102,
      "d": 103,
      "e": 104,
      "f": 105,
      "g": 106,
      "h": 107,
      "i": 108,
      "j": 109,
      "k": 110,
      "l": 111,
      "m": 112,
      "n": 113,
      "o": 114,
      "p": 115,
      "q": 116,
      "r": 117,
      "s": 118,
      "t": 119,
      "u": 120,
      "v": 121,
      "w": 122,
      "x": 123,
      "y": 124,
      "z": 125,
      "{": 126,
      "|": 127,
      "}": 128,
      "~": 129,
      "¡": 130,
      "¢": 131,
      "£": 132,
      "¤": 133,
      "¥": 134,
      "¦": 135,
      "§": 136,
      "¨": 137,
      "©": 138,
      "ª": 139,
      "«": 140,
      "¬": 141,
      "®": 142,
      "¯": 143,
      "°": 144,
      "±": 145,
      "²": 146,
      "³": 147,
      "´": 148,
      "µ": 149,
      "¶": 150,
      "·": 151,
      "¸": 152,
      "¹": 153,
      "º": 154,
      "»": 155,
      "¼": 156,
      "½": 157,
      "¾": 158,
      "¿": 159,
      "À": 160,
      "Á": 161,
      "Â": 162,
      "Ã": 163,
      "Ä": 164,
      "Å": 165,
      "Æ": 166,
      "Ç": 167,
      "È": 168,
      "É": 169,
      "Ê": 170,
      "Ë": 171,
      "Ì": 172,
      "Í": 173,
      "Î": 174,
      "Ï": 175,
      "Ð": 176,
      "Ñ": 177,
      "Ò": 178,
      "Ó": 179,
      "Ô": 180,
      "Õ": 181,
      "Ö": 182,
      "×": 183,
      "Ø": 184,
      "Ù": 185,
      "Ú": 186,
      "Û": 187,
      "Ü": 188,
      "Ý": 189,
      "Þ": 190,
      "ß": 191,
      "à": 192,
      "á": 193,
      "â": 194,
      "ã": 195,
      "ä": 196,
      "å": 197,
      "æ": 198,
      "ç": 199,
      "è": 200,
      "é": 201,
      "ê": 202,
      "ë": 203,
      "ì": 204,
      "í": 205,
      "î": 206,
      "ï": 207,
      "ð": 208,
      "ñ": 209,
      "ò": 210,
      "ó": 211,
      "ô": 212,
      "õ": 213,
      "ö": 214,
      "÷": 215,
      "ø": 216,
      "ù": 217,
      "ú": 218,
      "û": 219,
      "ü": 220,
      "ý": 221,
      "þ": 222,
      "ÿ": 223,
      "Ā": 224,
      "ā": 225,
      "Ă": 226,
      "ă": 227,
      "Ą": 228,
      "ą": 229,
      "Ć": 230,
      "ć": 231,
      "Ĉ": 232,
      "ĉ": 233,
      "Ċ": 234,
      "ċ": 235,
      "Č": 236,
      "č": 237,
      "Ď": 238,
      "ď": 239,
      "Đ": 240,
      "đ": 241,
      "Ē": 242,
      "ē": 243,
      "Ĕ": 244,
      "ĕ": 245,
      "Ė": 246,
      "ė": 247,
      "Ę": 248,
      "ę": 249,
      "Ě": 250,
      "ě": 251,
      "Ĝ": 252,
      "ĝ": 253,
      "Ğ": 254,
      "ğ": 255,
      "Ġ": 256,
      "ġ": 257,
      "Ģ": 258,
      "ģ": 259,
      "Ĥ": 260,
      "ĥ": 261,
      "Ħ": 262,
      "ħ": 263,
      "Ĩ": 264,
      "ĩ": 265,
      "Ī": 266,
      "ī": 267,
      "Ĭ": 268,
      "ĭ": 269,
      "Į": 270,
      "į": 271,
      "İ": 272,
      "ı": 273,
      "Ĳ": 274,
      "ĳ": 275,
      "Ĵ": 276,
      "ĵ": 277,
      "Ķ": 278,
      "ķ": 279,
      "ĸ": 280,
      "Ĺ": 281,
      "ĺ": 282,
      "Ļ": 283,
      "ļ": 284,
      "Ľ": 285,
      "ľ": 286,
      "Ŀ": 287,
      "ŀ": 288,
      "Ł": 289,
      "ł": 290,
      "Ń": 291,
      "Ġt": 292,
      "Ġa": 293,
      "he": 294,
      "in": 295,
      "re": 296,
      "Ġthe": 297,
      "Ġo": 298,
      "er": 299,
      "Ġs": 300,
      "at": 301,
      "on": 302,
      "Ġc": 303,
      "en": 304,
      "es": 305,
      "Ġw": 306,
      "is": 307,
      "nd": 308,
      "it": 309,
      "or": 310,
      "Ġp": 311,
      "al": 312,
      "Ġb": 313,
      "Ġf": 314,
      "an": 315,
      "ing": 316,
      "ed": 317,
      "Ġof": 318,
      "ou": 319,
      "Ġin": 320,
      "ar": 321,
      "Ġm": 322,
      "Ġto": 323,
      "Ġand": 324,
      "ic": 325,
      "Ġd": 326,
      "ion": 327,
      "le": 328,
      "ro": 329,
      "as": 330,
      "Ġh": 331,
      "Ġth": 332,
      "ent": 333,
      "ct": 334,
      "il": 335,
      "Ġe": 336,
      "Ġre": 337,
      "ve": 338,
      "Ġl": 339,
      "om": 340,
      "st": 341,
      "Ġn": 342,
      "âĢ": 343,
      "Ġis": 344,
      "Ġbe": 345,
      "ly": 346,
      "se": 347,
      "Ġg": 348,
      "ol": 349,
      "ĠT": 350,
      "et": 351,
      "id": 352,
      "ation": 353,
      "im": 354,
      "ut": 355,
      "ow": 356,
      "ur": 357,
      "ch": 358,
      "ot": 359,
      "ce": 360,
      "ra": 361,
      "Ġy": 362,
      "Ġfor": 363,
      "Ġu": 364,
      "ig": 365,
      "Ġon": 366,
      "Ġst": 367,
      "Ġthat": 368,
      "ĠA": 369,
      "ver": 370,
      "ĠS": 371,
      "ir": 372,
      "ay": 373,
      "ĠC": 374,
      "ul": 375,
      "Ġyou": 376,
      "ĠI": 377,
      "am": 378,
      "Ġare": 379,
      "el": 380,
      "ith": 381,
      "Ġas": 382,
      "Ġpro": 383,
      "ad": 384,
      "her": 385,
      "Ġan": 386,
      "Ġcon": 387,
      "Ġwith": 388,
      "Ġor": 389,
      "if": 390,
      "Ġit": 391,
      "Ġwh": 392,
      "Ġal": 393,
      "od": 394,
      "ter": 395,
      "ge": 396,
      "th": 397,
      "ĠThe": 398,
      "ment": 399,
      "op": 400,
      "ill": 401,
      "ess": 402,
      "ĠM": 403,
      "ers": 404,
      "Ġhe": 405,
      "ate": 406,
      "ts": 407,
      "Ġde": 408,
      "âĢĻ": 409,
      "ĠP": 410,
      "ies": 411,
      "Ġex": 412,
      "ab": 413,
      "ore": 414,
      "ect": 415,
      "Ġcom": 416,
      "Ġ(": 417,
      "Ġ1": 418,
      "Ġsu": 419,
      "Ġha": 420,
      "Ġwe": 421,
      "ke": 422,
      "us": 423,
      "ive": 424,
      "ĠB": 425,
      "ac": 426,
      "ity": 427,
      "rom": 428,
      "um": 429,
      "Ġv": 430,
      "ld": 431,
      "Ġcan": 432,
      "res": 433,
      "ist": 434,
      "est": 435,
      "os": 436,
      "Ġat": 437,
      "ĠW": 438,
      "ud": 439,
      "qu": 440,
      "em": 441,
      "Ġch": 442,
      "Ġby": 443,
      "igh": 444,
      "ĠH": 445,
      "iv": 446,
      "ain": 447,
      "pp": 448,
      "Ġfrom": 449,
      "Ġne": 450,
      "ĠD": 451,
      "Ġr": 452,
      "oc": 453,
      "nt": 454,
      "and": 455,
      "ĠE": 456,
      "Ġse": 457,
      "Ġle": 458,
      "ial": 459,
      "Ġwas": 460,
      "ĠâĢ": 461,
      "ant": 462,
      "ure": 463,
      "un": 464,
      "ĠF": 465,
      "Ġhave": 466,
      "ĠR": 467,
      "ort": 468,
      "ical": 469,
      "Ġnot": 470,
      "og": 471,
      "Ġsh": 472,
      "Ġen": 473,
      "ĠN": 474,
      "Ġsp": 475,
      "Ġ2": 476,
      "art": 477,
      "Ġthis": 478,
      "Ġab": 479,
      "Ġwor": 480,
      "The": 481,
      "ri": 482,
      "ĠG": 483,
      "ĠL": 484,
      "rou": 485,
      "all": 486,
      "out": 487,
      "Ġyour": 488,
      "ome": 489,
      "our": 490,
      "ap": 491,
      "ost": 492,
      "Ġus": 493,
      "Ġpl": 494,
      "du": 495,
      "Ġim": 496,
      "gh": 497,
      "red": 498,
      "ine": 499,
      "ould": 500,
      "ions": 501,
      "ich": 502,
      "ide": 503,
      "ag": 504,
      "ear": 505,
      "ight": 506,
      "ther": 507,
      "act": 508,
      "ell": 509,
      "ard": 510,
      "ated": 511,
      "Ġtheir": 512,
      "ff": 513,
      "00": 514,
      "Ġwill": 515,
      "age": 516,
      "Ġint": 517,
      "Ġk": 518,
      "ood": 519,
      "ak": 520,
      "pl": 521,
      "ast": 522,
      "Ġthey": 523,
      "Ġwhe": 524,
      "per": 525,
      "ust": 526,
      "Ġmore": 527,
      "pt": 528,
      "ec": 529,
      "ans": 530,
      "ĠU": 531,
      "ĠO": 532,
      "Ġad": 533,
      "Ġdis": 534,
      "Ġall": 535,
      "Ġwhich": 536,
      "Ġinc": 537,
      "Ġcont": 538,
      "ous": 539,
      "Ġcomp": 540,
      "iz": 541,
      "ild": 542,
      "Ġhas": 543,
      "ren": 544,
      "vel": 545,
      "âĢĿ": 546,
      "ru": 547,
      "Ġdo": 548,
      "ib": 549,
      "end": 550,
      "cc": 551,
      "ong": 552,
      "ater": 553,
      "orm": 554,
      "ew": 555,
      "Ġres": 556,
      "so": 557,
      "ip": 558,
      "ĠIn": 559,
      "ia": 560,
      "Ġte": 561,
      "ks": 562,
      "Ġcl": 563,
      "ations": 564,
      "ents": 565,
      "ary": 566,
      "ĠJ": 567,
      "able": 568,
      "ind": 569,
      "ry": 570,
      "Ġman": 571,
      "ake": 572,
      "ally": 573,
      "Ġother": 574,
      "ĠTh": 575,
      "ence": 576,
      "Ġbut": 577,
      "ep": 578,
      "Ġimp": 579,
      "oo": 580,
      "Ġstud": 581,
      "'s": 582,
      "ach": 583,
      "Ġalso": 584,
      "reat": 585,
      "Ġone": 586,
      "Ġj": 587,
      "ult": 588,
      "Ġme": 589,
      "are": 590,
      "Ġabout": 591,
      "Ġper": 592,
      "ase": 593,
      "ĠâĢľ": 594,
      "ass": 595,
      "Ġout": 596,
      "rit": 597,
      "ance": 598,
      "Ġso": 599,
      "ign": 600,
      "very": 601,
      "au": 602,
      "ice": 603,
      "av": 604,
      "one": 605,
      "ress": 606,
      "Ġpe": 607,
      "Ġtim": 608,
      "ory": 609,
      "ction": 610,
      "fe": 611,
      "Ġsc": 612,
      "Ġinf": 613,
      "ace": 614,
      "Ġar": 615,
      "Ġwho": 616,
      "ord": 617,
      "Ġun": 618,
      "Ġapp": 619,
      "ber": 620,
      "Ġwere": 621,
      "ike": 622,
      "ack": 623,
      "Ġev": 624,
      "Ġsy": 625,
      "ish": 626,
      "ens": 627,
      "ays": 628,
      "ĠSt": 629,
      "ound": 630,
      "Ġthem": 631,
      "ame": 632,
      "ang": 633,
      "ition": 634,
      "Ġdi": 635,
      "now": 636,
      "ub": 637,
      "ors": 638,
      "ose": 639,
      "low": 640,
      "ue": 641,
      "ree": 642,
      "Ġcomm": 643,
      "olog": 644,
      "ople": 645,
      "Ġup": 646,
      "ces": 647,
      "Ġyear": 648,
      "Ġqu": 649,
      "Ġpre": 650,
      "ount": 651,
      "Ġthan": 652,
      "Ġbec": 653,
      "Ġpart": 654,
      "Ġmay": 655,
      "ric": 656,
      "Ġhow": 657,
      "ite": 658,
      "king": 659,
      "Ġsome": 660,
      "ile": 661,
      "ail": 662,
      "Ġwhen": 663,
      "Ġrec": 664,
      "mer": 665,
      "Ġ19": 666,
      "ĠIt": 667,
      "Ġpeople": 668,
      "Ġour": 669,
      "Ġsa": 670,
      "vers": 671,
      "Ġuse": 672,
      "ings": 673,
      "Ġcol": 674,
      "ie": 675,
      "alth": 676,
      "ph": 677,
      "Ġinto": 678,
      "nder": 679,
      "Ġtime": 680,
      "ates": 681,
      "Ġbeen": 682,
      "Ġgo": 683,
      "ĠK": 684,
      "ough": 685,
      "Ġro": 686,
      "Ġhis": 687,
      "Ġhel": 688,
      "Ġthere": 689,
      "Ġtra": 690,
      "Ġover": 691,
      "rough": 692,
      "Ġlike": 693,
      "Ġdif": 694,
      "lud": 695,
      "ause": 696,
      "Ġits": 697,
      "Ġchild": 698,
      "te": 699,
      "Ġthese": 700,
      "Ġbl": 701,
      "ĠThis": 702,
      "Ġ20": 703,
      "erv": 704,
      "Ġnew": 705,
      "ms": 706,
      "Ġ\"": 707,
      "Ġknow": 708,
      "ys": 709,
      "ĠCh": 710,
      "Ġhelp": 711,
      "Ġag": 712,
      "Ġmost": 713,
      "ons": 714,
      "Ġneed": 715,
      "ll": 716,
      "ning": 717,
      "rent": 718,
      "Ġact": 719,
      "row": 720,
      "Ġra": 721,
      "les": 722,
      "ian": 723,
      "ject": 724,
      "velop": 725,
      "ove": 726,
      "ual": 727,
      "irst": 728,
      "tern": 729,
      "Ġbet": 730,
      "ond": 731,
      "ĠY": 732,
      "Ġcons": 733,
      "ffect": 734,
      "ific": 735,
      "ĠV": 736,
      "lect": 737,
      "Ġunder": 738,
      "we": 739,
      "Ġtr": 740,
      "Ġif": 741,
      "ities": 742,
      "ool": 743,
      "lic": 744,
      ").": 745,
      "ient": 746,
      "ments": 747,
      "Ġacc": 748,
      "Ġ3": 749,
      "stem": 750,
      "Ġinclud": 751,
      "Ġdes": 752,
      "Ġwhat": 753,
      "Ġtw": 754,
      "ple": 755,
      "Ġwork": 756,
      "ious": 757,
      "Ġused": 758,
      "Ġph": 759,
      "ob": 760,
      "ire": 761,
      "ook": 762,
      "Ġwould": 763,
      "Ġsuch": 764,
      "ating": 765,
      "Ġfe": 766,
      "Ġdevelop": 767,
      "yp": 768,
      "Ġrep": 769,
      "Ġmany": 770,
      "Ġany": 771,
      "ational": 772,
      "Ġprodu": 773,
      "round": 774,
      "ative": 775,
      "Ġgen": 776,
      "cess": 777,
      "hed": 778,
      "ular": 779,
      "Ġrel": 780,
      "Ġthrough": 781,
      "ics": 782,
      "Ġfirst": 783,
      "Ġspec": 784,
      "Ġprov": 785,
      "Ġrese": 786,
      "Ġ-": 787,
      "arch": 788,
      "Ġonly": 789,
      "ov": 790,
      "eth": 791,
      "ĠUn": 792,
      "uc": 793,
      "oin": 794,
      "Ġpr": 795,
      "ise": 796,
      "Ġac": 797,
      "Ġhad": 798,
      "ath": 799,
      "ced": 800,
      "ĠâĢĵ": 801,
      "Ġwater": 802,
      "Ġam": 803,
      "Ġdiffe": 804,
      "ful": 805,
      "Ġhealth": 806,
      "uring": 807,
      "oss": 808,
      "Ġno": 809,
      "fter": 810,
      "hen": 811,
      "Ġoff": 812,
      "Ġem": 813,
      "als": 814,
      "Ġsystem": 815,
      "ble": 816,
      "Ġtwo": 817,
      "ark": 818,
      "Ġind": 819,
      "Ġfl": 820,
      "ange": 821,
      "Ġadd": 822,
      "ten": 823,
      "oth": 824,
      "iss": 825,
      "Ġsur": 826,
      "ife": 827,
      "ne": 828,
      "ĠHe": 829,
      "Ġget": 830,
      "Ġexp": 831,
      "old": 832,
      "Ġreg": 833,
      "erm": 834,
      "ram": 835,
      "own": 836,
      "rop": 837,
      "Ġmake": 838,
      "Ġsm": 839,
      "ting": 840,
      "Ġdec": 841,
      "Ġwell": 842,
      "ible": 843,
      "ased": 844,
      "Ġyears": 845,
      "In": 846,
      "Ġshould": 847,
      "ures": 848,
      "ng": 849,
      "Ġob": 850,
      "chool": 851,
      "rib": 852,
      "Ġlear": 853,
      "ility": 854,
      "ower": 855,
      "Ġatt": 856,
      "ract": 857,
      "Ġass": 858,
      "hat": 859,
      "chn": 860,
      "Ġ201": 861,
      "Ġrem": 862,
      "Ġhigh": 863,
      "ience": 864,
      "Ġcould": 865,
      "hes": 866,
      "ology": 867,
      "Ġsupp": 868,
      "fore": 869,
      "ert": 870,
      "Ġinv": 871,
      "ick": 872,
      "Ġimport": 873,
      "xt": 874,
      "ily": 875,
      "meric": 876,
      "Ġbu": 877,
      "wn": 878,
      "),": 879,
      "its": 880,
      "ade": 881,
      "gan": 882,
      "ween": 883,
      "ants": 884,
      "Ġsaid": 885,
      "Ġwhere": 886,
      "Ġco": 887,
      "uch": 888,
      "ss": 889,
      "ormation": 890,
      "Ġsub": 891,
      "Ġexam": 892,
      "cy": 893,
      "ink": 894,
      "Ġpers": 895,
      "Ġcar": 896,
      "ists": 897,
      "Ġpres": 898,
      "Ġfound": 899,
      "ution": 900,
      "Ġbetween": 901,
      "Ġform": 902,
      "Ġnum": 903,
      "Ġear": 904,
      "ied": 905,
      "Ġworld": 906,
      "sel": 907,
      "Ġdisc": 908,
      "ural": 909,
      "Ġexper": 910,
      "ually": 911,
      "ines": 912,
      "erg": 913,
      "land": 914,
      "Ġjust": 915,
      "Ġ4": 916,
      "Ġdifferent": 917,
      "ict": 918,
      "Ġchildren": 919,
      "Ġeffect": 920,
      "ident": 921,
      "Ġstudents": 922,
      "Ġwrit": 923,
      "Ġke": 924,
      "Ġtyp": 925,
      "Ġlong": 926,
      "Ġway": 927,
      "Ġinst": 928,
      "ever": 929,
      "iet": 930,
      "Ġtrans": 931,
      "Ġher": 932,
      "Ġ5": 933,
      "ft": 934,
      "Ġsim": 935,
      "Ġmed": 936,
      "ivers": 937,
      "Ġed": 938,
      "ata": 939,
      "ins": 940,
      "Ġmod": 941,
      "Ġvery": 942,
      "Ġbecause": 943,
      "ron": 944,
      "Ġlar": 945,
      "aking": 946,
      "Ġsee": 947,
      "Th": 948,
      "ited": 949,
      "ef": 950,
      "Ġeven": 951,
      "get": 952,
      "ature": 953,
      "Ġfood": 954,
      "Ġpol": 955,
      "aw": 956,
      "vent": 957,
      "Ġevery": 958,
      "Ġafter": 959,
      "Ġthen": 960,
      "ĠAmeric": 961,
      "Ġtechn": 962,
      "ds": 963,
      "Ġprog": 964,
      "Ġincre": 965,
      "Ġgra": 966,
      "Ġcent": 967,
      "cer": 968,
      "Ġhum": 969,
      "Ġinter": 970,
      "Ġstudy": 971,
      "hers": 972,
      "Ġread": 973,
      "Ġsk": 974,
      "Ġimportant": 975,
      "Ġdet": 976,
      "ody": 977,
      "ives": 978,
      "Ġcount": 979,
      "urn": 980,
      "arm": 981,
      "Ġpub": 982,
      "iron": 983,
      "Ġinformation": 984,
      "iew": 985,
      "ted": 986,
      "ically": 987,
      "ases": 988,
      "Ġvar": 989,
      "Ġfind": 990,
      "Ġlife": 991,
      "Ġcall": 992,
      "oy": 993,
      "ck": 994,
      "Ġsign": 995,
      "ues": 996,
      "Ġthose": 997,
      "Ġcre": 998,
      "ages": 999,
      "Ġresp": 1000,
      "Ġeach": 1001,
      "Ġprocess": 1002,
      "Ġart": 1003,
      "Ġresearch": 1004,
      "ollow": 1005,
      "Ġpat": 1006,
      "Ġfam": 1007,
      "Ġgener": 1008,
      "Ġext": 1009,
      "Ġloc": 1010,
      "cent": 1011,
      "ere": 1012,
      "other": 1013,
      "Ġmuch": 1014,
      "Ġbeing": 1015,
      ".âĢĿ": 1016,
      "Ġess": 1017,
      "Ġschool": 1018,
      "ruct": 1019,
      "Ġfact": 1020,
      "form": 1021,
      "Ġmon": 1022,
      "ĠWe": 1023,
      "Ġproble": 1024,
      "Ġshe": 1025,
      "Ġsoc": 1026,
      "Ġche": 1027,
      "ness": 1028,
      "Ġgrow": 1029,
      "ism": 1030,
      "tle": 1031,
      "Ġ200": 1032,
      "ps": 1033,
      "omm": 1034,
      "Ġ18": 1035,
      "Ġdoes": 1036,
      "Ġlead": 1037,
      "Ġduring": 1038,
      "Ġpartic": 1039,
      "led": 1040,
      "gg": 1041,
      "con": 1042,
      "Ġcommun": 1043,
      "Ġset": 1044,
      "Ġdise": 1045,
      "Ġlevel": 1046,
      "Ġrequ": 1047,
      "Ġsec": 1048,
      "ĠPro": 1049,
      "..": 1050,
      "Ġgood": 1051,
      "Ġhist": 1052,
      "Ġdata": 1053,
      "Ġusing": 1054,
      "ĠIf": 1055,
      "ĠThey": 1056,
      "ĠAl": 1057,
      "Ġcur": 1058,
      "Ġshow": 1059,
      "Ġperson": 1060,
      "Ġav": 1061,
      "Ġback": 1062,
      "Ġdep": 1063,
      "Ġown": 1064,
      "ices": 1065,
      "ork": 1066,
      "viron": 1067,
      "Ġgl": 1068,
      "Ġexpl": 1069,
      "akes": 1070,
      "read": 1071,
      "Ġaut": 1072,
      "ize": 1073,
      "Ġfollow": 1074,
      "Ġmin": 1075,
      "Ġsol": 1076,
      "ale": 1077,
      "Ġmy": 1078,
      "Ġsmall": 1079,
      "ward": 1080,
      "any": 1081,
      "Ġent": 1082,
      "rect": 1083,
      "orn": 1084,
      "stand": 1085,
      "Ġmade": 1086,
      "ergy": 1087,
      "ection": 1088,
      "Ġless": 1089,
      "Ġins": 1090,
      "Ġtake": 1091,
      "Ġday": 1092,
      "Ġdist": 1093,
      "Ġlit": 1094,
      "Ġca": 1095,
      "rain": 1096,
      "Ġtreat": 1097,
      "Ġdef": 1098,
      "io": 1099,
      "Ġsame": 1100,
      "Ġris": 1101,
      "ather": 1102,
      "Ġpar": 1103,
      "Ġstr": 1104,
      "Ġbody": 1105,
      "Ġoften": 1106,
      "Ġcomple": 1107,
      "ĠRe": 1108,
      "Ġend": 1109,
      "cept": 1110,
      "ĠAs": 1111,
      "Ġaround": 1112,
      "Ġ6": 1113,
      "iversity": 1114,
      "oun": 1115,
      "This": 1116,
      "Ġbefore": 1117,
      "ved": 1118,
      "ized": 1119,
      "Ġpop": 1120,
      "iel": 1121,
      "Ġgrou": 1122,
      "Ġboth": 1123,
      "vironment": 1124,
      "omen": 1125,
      "und": 1126,
      "day": 1127,
      "000": 1128,
      "imate": 1129,
      "ĠAn": 1130,
      "hip": 1131,
      "Ġprot": 1132,
      "Ġbr": 1133,
      "Ġnow": 1134,
      "Ġpo": 1135,
      "ĠHow": 1136,
      "Ġvis": 1137,
      "ality": 1138,
      "ex": 1139,
      "Ġdown": 1140,
      "ially": 1141,
      "Ġmain": 1142,
      "vern": 1143,
      "Ġref": 1144,
      "Ġfun": 1145,
      "Ġclass": 1146,
      "ien": 1147,
      "ĠSc": 1148,
      "Ġactiv": 1149,
      "Ġcommon": 1150,
      "ute": 1151,
      "Ġwhile": 1152,
      "ides": 1153,
      "ix": 1154,
      "iqu": 1155,
      "Ġdesign": 1156,
      "ty": 1157,
      "Ġcell": 1158,
      "ished": 1159,
      "ince": 1160,
      "ars": 1161,
      "Ġtoo": 1162,
      "Ġnumber": 1163,
      "ĠSp": 1164,
      ",âĢĿ": 1165,
      "ĠFor": 1166,
      "Ġstate": 1167,
      "the": 1168,
      "rol": 1169,
      "ĠYou": 1170,
      "iety": 1171,
      "ĠNew": 1172,
      "Ġplan": 1173,
      "Ġorgan": 1174,
      "ral": 1175,
      "ivid": 1176,
      "Ġchar": 1177,
      "ĠAr": 1178,
      "Ġhand": 1179,
      "Ġposs": 1180,
      "oint": 1181,
      "iving": 1182,
      "Ġlearn": 1183,
      "der": 1184,
      "oh": 1185,
      "Ġredu": 1186,
      "inal": 1187,
      "dition": 1188,
      "âĢľ": 1189,
      "Ġocc": 1190,
      "Ġval": 1191,
      "ock": 1192,
      "Ġthree": 1193,
      "ury": 1194,
      "ids": 1195,
      "ier": 1196,
      "Ġma": 1197,
      "Ġserv": 1198,
      "ional": 1199,
      "Ġpower": 1200,
      "up": 1201,
      "ĠCon": 1202,
      "Ġcle": 1203,
      "Ġmem": 1204,
      "Ġelect": 1205,
      "Ġcare": 1206,
      "air": 1207,
      "ves": 1208,
      "Ġdr": 1209,
      "Ġhuman": 1210,
      "Ġagain": 1211,
      "com": 1212,
      "Ġstart": 1213,
      "ger": 1214,
      "Ġunderstand": 1215,
      "ains": 1216,
      "Ġser": 1217,
      "ters": 1218,
      "ave": 1219,
      "Ġbel": 1220,
      "Ġgreat": 1221,
      "Ġeduc": 1222,
      "reen": 1223,
      "Ġcap": 1224,
      "Ġsom": 1225,
      "ital": 1226,
      "Ġ10": 1227,
      "Ġexample": 1228,
      "gen": 1229,
      "Ġtest": 1230,
      "ulation": 1231,
      "Ġincluding": 1232,
      "ving": 1233,
      "Ġeas": 1234,
      "ven": 1235,
      "Ġbuild": 1236,
      "ull": 1237,
      "acter": 1238,
      "Ġallow": 1239,
      "ets": 1240,
      "ross": 1241,
      "line": 1242,
      "raph": 1243,
      "ium": 1244,
      "aterial": 1245,
      "Ġknown": 1246,
      "oms": 1247,
      "Ġlarge": 1248,
      "cl": 1249,
      "Ġdisease": 1250,
      "ouse": 1251,
      "ĠInd": 1252,
      "Ġadv": 1253,
      "ĠBut": 1254,
      "Ġquest": 1255,
      "Ġcaus": 1256,
      "Ġop": 1257,
      "20": 1258,
      "ults": 1259,
      "Ġcalled": 1260,
      "Ġcour": 1261,
      "Ġenergy": 1262,
      "ee": 1263,
      "uss": 1264,
      "way": 1265,
      "Ġproject": 1266,
      "ources": 1267,
      "de": 1268,
      "ash": 1269,
      "Ġland": 1270,
      "Ġdon": 1271,
      "Ġwant": 1272,
      "ering": 1273,
      "Ġcontin": 1274,
      "Ġgu": 1275,
      "ĠUniversity": 1276,
      "Ġbo": 1277,
      "Ġbeh": 1278,
      "Ġenvironment": 1279,
      "Ġchange": 1280,
      "Ġstill": 1281,
      "me": 1282,
      "arc": 1283,
      "Ġdid": 1284,
      "'t": 1285,
      "Ġeng": 1286,
      "outh": 1287,
      "Ġfew": 1288,
      "Ġide": 1289,
      "Ġmet": 1290,
      "Ġ7": 1291,
      "Ġmust": 1292,
      "Ġsupport": 1293,
      "itions": 1294,
      "Ġthough": 1295,
      "anc": 1296,
      "Ġplay": 1297,
      "Ġcor": 1298,
      "Ġsym": 1299,
      "iver": 1300,
      "lish": 1301,
      "Ġhome": 1302,
      "Ġequ": 1303,
      "Ġmight": 1304,
      "Ġright": 1305,
      "Ġchang": 1306,
      "ording": 1307,
      "ected": 1308,
      "Ġplace": 1309,
      "Ġest": 1310,
      "els": 1311,
      "itive": 1312,
      "Ġmill": 1313,
      "bs": 1314,
      "Ġconf": 1315,
      "Ġmaterial": 1316,
      "ared": 1317,
      "ĠWh": 1318,
      "agn": 1319,
      "angu": 1320,
      "Ġpublic": 1321,
      "ined": 1322,
      "âĢĶ": 1323,
      "ĠThere": 1324,
      "Ġproduct": 1325,
      "Ġair": 1326,
      "ries": 1327,
      "It": 1328,
      "Ġgovern": 1329,
      "Ġpract": 1330,
      "Ġimpro": 1331,
      "Ġve": 1332,
      "Ġmus": 1333,
      "Ġphys": 1334,
      "Ġtem": 1335,
      "ired": 1336,
      "Ġ8": 1337,
      "ĠâĢĺ": 1338,
      "Ġiss": 1339,
      "ential": 1340,
      "Ġmat": 1341,
      "self": 1342,
      "Ġprof": 1343,
      "ĠEng": 1344,
      "iod": 1345,
      "Ġrisk": 1346,
      "Ġpap": 1347,
      "rodu": 1348,
      ".\"": 1349,
      "ax": 1350,
      "Ġtop": 1351,
      "Ġbre": 1352,
      "Ġanal": 1353,
      "oci": 1354,
      "Ġblood": 1355,
      "eng": 1356,
      "Ġarea": 1357,
      "conom": 1358,
      "iven": 1359,
      "ĠThese": 1360,
      "ights": 1361,
      "Ġconst": 1362,
      "orts": 1363,
      "Ġben": 1364,
      "Ġinclude": 1365,
      "Ġhistory": 1366,
      "Ġret": 1367,
      "Ġappro": 1368,
      "erest": 1369,
      "ton": 1370,
      "ividual": 1371,
      "ĠAnd": 1372,
      "ah": 1373,
      "Ġdevelopment": 1374,
      "osed": 1375,
      "ption": 1376,
      "Ġstand": 1377,
      "Ġreport": 1378,
      "Ġwomen": 1379,
      "iness": 1380,
      "Ġbest": 1381,
      "Ġlook": 1382,
      "Ġanim": 1383,
      "Ġbetter": 1384,
      "ffic": 1385,
      "ination": 1386,
      "Ġprogram": 1387,
      "Ġpot": 1388,
      "ills": 1389,
      "erc": 1390,
      "Ġpresent": 1391,
      "Ġscient": 1392,
      "Ġkeep": 1393,
      "bers": 1394,
      "ĠRes": 1395,
      "ental": 1396,
      "What": 1397,
      "Ġident": 1398,
      "Ġpain": 1399,
      "gin": 1400,
      "Ġlight": 1401,
      "ĠAmerican": 1402,
      "ource": 1403,
      "rence": 1404,
      "Ġmeth": 1405,
      "Ġlearning": 1406,
      "Ġsl": 1407,
      "ration": 1408,
      "Ġimm": 1409,
      "ats": 1410,
      "Ġsit": 1411,
      "Ġpur": 1412,
      "||": 1413,
      "Ġresult": 1414,
      "Ġwithout": 1415,
      "sc": 1416,
      "Ġcause": 1417,
      "Ġdirect": 1418,
      "Ġbas": 1419,
      "ason": 1420,
      "sp": 1421,
      "Ġanother": 1422,
      "Ġbecome": 1423,
      "atural": 1424,
      "Ġwithin": 1425,
      "ertain": 1426,
      "ior": 1427,
      "ense": 1428,
      "tt": 1429,
      "Ġpercent": 1430,
      "Ġhim": 1431,
      "Ġ9": 1432,
      "ify": 1433,
      "19": 1434,
      "Ġsays": 1435,
      "ner": 1436,
      "ead": 1437,
      "ield": 1438,
      "Ġhere": 1439,
      "Ġindividual": 1440,
      "Ġfamily": 1441,
      "Ġold": 1442,
      "inc": 1443,
      "orth": 1444,
      "ime": 1445,
      "less": 1446,
      "ization": 1447,
      "jor": 1448,
      "Ġ&": 1449,
      "ways": 1450,
      "Ġtre": 1451,
      "Ġavail": 1452,
      "Ġpos": 1453,
      "Ġproper": 1454,
      "Ġhapp": 1455,
      "Ġsocial": 1456,
      "Ġinterest": 1457,
      "Ġdem": 1458,
      "lished": 1459,
      "ĠâĢĶ": 1460,
      ",\"": 1461,
      "Ġmeas": 1462,
      "Ġbelie": 1463,
      "to": 1464,
      "ories": 1465,
      "Ġprovide": 1466,
      "Ġplant": 1467,
      "ograph": 1468,
      "Ġpass": 1469,
      "ider": 1470,
      "ently": 1471,
      "Ġant": 1472,
      "Ġspecies": 1473,
      "here": 1474,
      "Ġable": 1475,
      "Ġessay": 1476,
      "Ġearly": 1477,
      "man": 1478,
      "Ġlow": 1479,
      "Ġcult": 1480,
      "ris": 1481,
      "Ġsever": 1482,
      "esp": 1483,
      "Ġlast": 1484,
      "ank": 1485,
      "ĠIs": 1486,
      "Ġlangu": 1487,
      "Ġaffect": 1488,
      "Ġdev": 1489,
      "aren": 1490,
      "Ġwee": 1491,
      "We": 1492,
      "eral": 1493,
      "Ġrest": 1494,
      "ered": 1495,
      "hor": 1496,
      "use": 1497,
      "Ġdesc": 1498,
      "ccess": 1499,
      "Ġfeel": 1500,
      "ability": 1501,
      "Ġmove": 1502,
      "Ġoccur": 1503,
      "ĠDe": 1504,
      "Ġeconom": 1505,
      "icle": 1506,
      "ological": 1507,
      "ĠPh": 1508,
      "Ġmethod": 1509,
      "view": 1510,
      "Ġwar": 1511,
      "Ġmeans": 1512,
      "ified": 1513,
      "Ġgroup": 1514,
      "ug": 1515,
      "rap": 1516,
      "ived": 1517,
      "Ġmar": 1518,
      "Ġcal": 1519,
      "Ġcontrol": 1520,
      "ĠAd": 1521,
      "Ġopp": 1522,
      "Ġprevent": 1523,
      "Ġnear": 1524,
      "Ġbus": 1525,
      "Ġreal": 1526,
      "ples": 1527,
      "Ġsay": 1528,
      "Ġele": 1529,
      "ards": 1530,
      "atic": 1531,
      "cle": 1532,
      "Ġbenef": 1533,
      "ients": 1534,
      "Ġmark": 1535,
      "ĠWhen": 1536,
      "ator": 1537,
      "Ġavailable": 1538,
      "ĠSh": 1539,
      "Ġmean": 1540,
      "Ġmajor": 1541,
      "Ġfree": 1542,
      "Ġthings": 1543,
      "Ġsecond": 1544,
      "Ġpossible": 1545,
      "tain": 1546,
      "Ġleg": 1547,
      "Ġfore": 1548,
      "ĠEx": 1549,
      "Ġthink": 1550,
      "oid": 1551,
      "ern": 1552,
      "Ġlist": 1553,
      "Ġindu": 1554,
      "par": 1555,
      "Ġorder": 1556,
      "ĠCol": 1557,
      "ots": 1558,
      "Ġseveral": 1559,
      "Ġcurrent": 1560,
      "Ġresearc": 1561,
      "Ġinfl": 1562,
      "ians": 1563,
      "Ġmil": 1564,
      "eg": 1565,
      "Ġcomput": 1566,
      "Ġbir": 1567,
      "__": 1568,
      "Ġareas": 1569,
      "If": 1570,
      "ocus": 1571,
      "Ġperform": 1572,
      "ining": 1573,
      "Ġtimes": 1574,
      "Ġdiff": 1575,
      "ĠWhat": 1576,
      "Ġopen": 1577,
      "az": 1578,
      "Ġage": 1579,
      "ĠCl": 1580,
      "ote": 1581,
      "Ġparticular": 1582,
      "Ġhead": 1583,
      "ogn": 1584,
      "osp": 1585,
      "ision": 1586,
      "Ġproblems": 1587,
      "Ġhard": 1588,
      "Ġinvol": 1589,
      "amp": 1590,
      "Ġhig": 1591,
      ".,": 1592,
      "Ġcost": 1593,
      "Ġflow": 1594,
      "Ġproblem": 1595,
      "Ġcreat": 1596,
      "Ġteac": 1597,
      "Ġtreatment": 1598,
      "Ġbook": 1599,
      "Ġperiod": 1600,
      "Ġaddition": 1601,
      "Ġunt": 1602,
      "ĠPl": 1603,
      "Ġname": 1604,
      "Ġoper": 1605,
      "Ġimpact": 1606,
      "Ġrun": 1607,
      "Ġfin": 1608,
      "Ġgovernment": 1609,
      "ĠHowever": 1610,
      "ission": 1611,
      "Ġel": 1612,
      "Ġspe": 1613,
      "Ġmonth": 1614,
      "ames": 1615,
      "Ġbi": 1616,
      "Ġpost": 1617,
      "Ġput": 1618,
      "ĠCent": 1619,
      "ends": 1620,
      "ething": 1621,
      "Ġorig": 1622,
      "ĠTo": 1623,
      "Ġsince": 1624,
      "Ġpaper": 1625,
      "ling": 1626,
      "ina": 1627,
      "ateg": 1628,
      "ention": 1629,
      "Ġprom": 1630,
      "ĠUnited": 1631,
      "ĠNational": 1632,
      "Ġbrain": 1633,
      "ole": 1634,
      "Ġyoung": 1635,
      "Ġtype": 1636,
      "Ġaccess": 1637,
      "Ġcome": 1638,
      "cing": 1639,
      "imes": 1640,
      "hy": 1641,
      "Ġothers": 1642,
      "ĠCan": 1643,
      "ones": 1644,
      "Ġ15": 1645,
      "ĠOn": 1646,
      "ik": 1647,
      "sy": 1648,
      "Ġcountry": 1649,
      "Ġmaking": 1650,
      "Ġlet": 1651,
      "Ġfollowing": 1652,
      "Ġpress": 1653,
      "une": 1654,
      "Ġlevels": 1655,
      "Ġtechnology": 1656,
      "Ġbased": 1657,
      "ring": 1658,
      "Ġfour": 1659,
      "rist": 1660,
      "Ġnatural": 1661,
      "ane": 1662,
      "ope": 1663,
      "alk": 1664,
      "ests": 1665,
      "ilar": 1666,
      "Ġconn": 1667,
      "Ġfac": 1668,
      "ooks": 1669,
      "Ġter": 1670,
      "Ġobject": 1671,
      "Ġagainst": 1672,
      "Ġstruct": 1673,
      "10": 1674,
      "Ġcells": 1675,
      "idence": 1676,
      "ĠTe": 1677,
      "urop": 1678,
      "Ġnon": 1679,
      "be": 1680,
      "Ġcancer": 1681,
      "Ġlittle": 1682,
      "Ġworks": 1683,
      "Ġpoint": 1684,
      "Ġlaw": 1685,
      "omp": 1686,
      "Ġfocus": 1687,
      "Ġcreate": 1688,
      "Ġsomething": 1689,
      "Ġlab": 1690,
      "br": 1691,
      "Ġsignific": 1692,
      "Ġvir": 1693,
      "Ġlim": 1694,
      "Ġmen": 1695,
      "Ġintern": 1696,
      "ware": 1697,
      "though": 1698,
      "ĠSe": 1699,
      "icult": 1700,
      "work": 1701,
      "How": 1702,
      "Ġplants": 1703,
      "ptoms": 1704,
      "oad": 1705,
      "Ġheart": 1706,
      "Ġeducation": 1707,
      "ortun": 1708,
      "Ġfre": 1709,
      "Ġwords": 1710,
      "Ġtoday": 1711,
      "ĠEn": 1712,
      "elf": 1713,
      "Ġcertain": 1714,
      "ended": 1715,
      "Ġindust": 1716,
      "Ġlikely": 1717,
      "Ġcond": 1718,
      "Ġview": 1719,
      "Ġgr": 1720,
      "Ġshort": 1721,
      "Ġlanguage": 1722,
      "uture": 1723,
      "Ġwhy": 1724,
      "Ġmillion": 1725,
      "ably": 1726,
      "Ġamong": 1727,
      "ĠWor": 1728,
      "Ġlocal": 1729,
      "ĠStates": 1730,
      "Ġsw": 1731,
      "Ġcourse": 1732,
      "Ġdel": 1733,
      "ĠBe": 1734,
      "Ġprofess": 1735,
      "ox": 1736,
      "Ġey": 1737,
      "Ġsuccess": 1738,
      "Ġsugg": 1739,
      "ances": 1740,
      "Ġwriting": 1741,
      "Ġcolle": 1742,
      "ww": 1743,
      "Ġpast": 1744,
      "Ġfil": 1745,
      "Ġresearchers": 1746,
      "ĠQ": 1747,
      "ĠEar": 1748,
      "atory": 1749,
      "Ġhy": 1750,
      "Ġteam": 1751,
      "Ġusually": 1752,
      "Ġmot": 1753,
      "ication": 1754,
      "Ġbehav": 1755,
      "Ġtemper": 1756,
      "atch": 1757,
      "Ġvol": 1758,
      "Ġtry": 1759,
      "Ġturn": 1760,
      "There": 1761,
      "Ġprovid": 1762,
      "ret": 1763,
      "Ġrece": 1764,
      "over": 1765,
      "As": 1766,
      "Ġfar": 1767,
      "ĠAt": 1768,
      "Ġcase": 1769,
      "ĠComm": 1770,
      "ĠZ": 1771,
      "ised": 1772,
      "Ġuntil": 1773,
      "ape": 1774,
      "Ġconsum": 1775,
      "Ġbro": 1776,
      "Ġspace": 1777,
      "Ġ12": 1778,
      "urope": 1779,
      "Ġtool": 1780,
      "Ġenc": 1781,
      "int": 1782,
      "ems": 1783,
      "Ġcir": 1784,
      "stit": 1785,
      "Ġalong": 1786,
      "olution": 1787,
      "ately": 1788,
      "Ġdue": 1789,
      "Ġdays": 1790,
      "Ġgive": 1791,
      "Ġmult": 1792,
      "Ġresults": 1793,
      "obal": 1794,
      "Ġsystems": 1795,
      "Ġrele": 1796,
      "sw": 1797,
      "urther": 1798,
      "Ġdeath": 1799,
      "etic": 1800,
      "port": 1801,
      "ours": 1802,
      "ression": 1803,
      "face": 1804,
      "Ġeffective": 1805,
      "Ġnext": 1806,
      "Ġways": 1807,
      "Ġchem": 1808,
      "ured": 1809,
      "hem": 1810,
      "ploy": 1811,
      "aves": 1812,
      "Ġacross": 1813,
      "Ġassoci": 1814,
      "Ġalways": 1815,
      "aster": 1816,
      "ysis": 1817,
      "inking": 1818,
      "Ġfunction": 1819,
      "Ġworking": 1820,
      "Ġneeds": 1821,
      "Ġdam": 1822,
      "aps": 1823,
      "Ġspecial": 1824,
      "Ġcontain": 1825,
      "Ġincrease": 1826,
      "Ġcomb": 1827,
      "rug": 1828,
      "Ġtoget": 1829,
      "Ġkey": 1830,
      "Ġtogether": 1831,
      "St": 1832,
      "Ġrad": 1833,
      "Ġdra": 1834,
      "Ġinvest": 1835,
      "ont": 1836,
      "Ġscience": 1837,
      "ledge": 1838,
      "aken": 1839,
      "Ġdifficult": 1840,
      "Ġill": 1841,
      "Ġ199": 1842,
      "ecially": 1843,
      "Ġbegin": 1844,
      "Ġcommunity": 1845,
      "agement": 1846,
      "icro": 1847,
      "Ġappear": 1848,
      "Ġexperience": 1849,
      "Ġ$": 1850,
      "Ġdeterm": 1851,
      "ĠAf": 1852,
      "Ġgiven": 1853,
      "Ġfuture": 1854,
      "Ġtypes": 1855,
      "Ġimprove": 1856,
      "ĠUS": 1857,
      "Ġmov": 1858,
      "of": 1859,
      "ators": 1860,
      "por": 1861,
      "ique": 1862,
      "For": 1863,
      "Ġsignificant": 1864,
      "Ġcrit": 1865,
      "Ġ17": 1866,
      "Ġenough": 1867,
      "ember": 1868,
      "Ġchanges": 1869,
      "Ġstory": 1870,
      "ged": 1871,
      "Ġeffects": 1872,
      "Ġdiscuss": 1873,
      "idd": 1874,
      "ending": 1875,
      "Ġsymptoms": 1876,
      "vious": 1877,
      "Ġ'": 1878,
      "Ġnut": 1879,
      "Ġsure": 1880,
      "especially": 1881,
      "Ġbig": 1882,
      "aching": 1883,
      "resent": 1884,
      "Ġcomplete": 1885,
      "Ġbusiness": 1886,
      "Ġlater": 1887,
      "Ġcr": 1888,
      "Ġsimilar": 1889,
      "ither": 1890,
      "Ġrecord": 1891,
      "aring": 1892,
      "acc": 1893,
      "ument": 1894,
      "Ġstep": 1895,
      "Ġspecific": 1896,
      "ored": 1897,
      "not": 1898,
      "Ġsum": 1899,
      "Ġer": 1900,
      "pr": 1901,
      "asing": 1902,
      "Ġprotect": 1903,
      "Ġline": 1904,
      "ctor": 1905,
      "Ġaway": 1906,
      "Ġconditions": 1907,
      "Ġsing": 1908,
      "Ġet": 1909,
      "Ġapplic": 1910,
      "ĠOr": 1911,
      "ĠEurope": 1912,
      "ĠMed": 1913,
      "Ġfull": 1914,
      "let": 1915,
      "cul": 1916,
      "Ġleast": 1917,
      "Ġauthor": 1918,
      "iting": 1919,
      "Ġterm": 1920,
      "Ġobs": 1921,
      "ohn": 1922,
      "Ġcharacter": 1923,
      "Ġstrong": 1924,
      "âĢĵ": 1925,
      "Ġpopulation": 1926,
      "ned": 1927,
      "Ġkind": 1928,
      "most": 1929,
      "Ġskills": 1930,
      "Ġside": 1931,
      "ĠAll": 1932,
      "ray": 1933,
      "Ġword": 1934,
      "An": 1935,
      "aces": 1936,
      "Ġmakes": 1937,
      "Ġhigher": 1938,
      "Ġvarious": 1939,
      "bon": 1940,
      "ode": 1941,
      "oot": 1942,
      "Ġcentury": 1943,
      "ales": 1944,
      "ried": 1945,
      "Ġphot": 1946,
      "ables": 1947,
      "Ġgoing": 1948,
      "ĠBl": 1949,
      "pect": 1950,
      "Ġabove": 1951,
      "Ġcountries": 1952,
      "by": 1953,
      "arents": 1954,
      "Ġespecially": 1955,
      "Ġcy": 1956,
      "Ġlive": 1957,
      "omes": 1958,
      "ĠSo": 1959,
      "Ġbelow": 1960,
      "Ġ0": 1961,
      "ĠAfric": 1962,
      "50": 1963,
      "ruction": 1964,
      "alf": 1965,
      "Ġreally": 1966,
      "ym": 1967,
      "Ġtext": 1968,
      "ĠFr": 1969,
      "isc": 1970,
      "ribut": 1971,
      "ilities": 1972,
      "Ġnorm": 1973,
      "Ġpatients": 1974,
      "ush": 1975,
      "Ġdescrib": 1976,
      "ooking": 1977,
      "Ġrespons": 1978,
      "ĠDr": 1979,
      "Ġclear": 1980,
      "Ġsens": 1981,
      "Ġquestions": 1982,
      "Ġleft": 1983,
      "Ġamount": 1984,
      "Ġgre": 1985,
      "iation": 1986,
      "min": 1987,
      "ĠHealth": 1988,
      "Ġrequire": 1989,
      "Ġstudies": 1990,
      "ilt": 1991,
      "thing": 1992,
      "Ġdig": 1993,
      "Ġlot": 1994,
      "acy": 1995,
      "ae": 1996,
      "Ġopt": 1997,
      "Ġclimate": 1998,
      "Ġpolit": 1999,
      "Ġnet": 2000,
      "Ġintrodu": 2001,
      "Ġhealthy": 2002,
      "...": 2003,
      "ires": 2004,
      "Ġresources": 2005,
      "Ġweek": 2006,
      "Ġflu": 2007,
      "Ġhaving": 2008,
      "Ġactivities": 2009,
      "oney": 2010,
      "ery": 2011,
      "Ġchall": 2012,
      "af": 2013,
      "Ġz": 2014,
      "hern": 2015,
      "Ġskin": 2016,
      "earch": 2017,
      "mit": 2018,
      "eds": 2019,
      "Ġsun": 2020,
      "ung": 2021,
      "itor": 2022,
      "Ġactivity": 2023,
      "omet": 2024,
      "18": 2025,
      "Ġfall": 2026,
      "Ġexist": 2027,
      "ĠGod": 2028,
      "ĠEnglish": 2029,
      "leep": 2030,
      "ready": 2031,
      "selves": 2032,
      "aut": 2033,
      "ler": 2034,
      "Ġtru": 2035,
      "ipp": 2036,
      "Ġphysical": 2037,
      "ott": 2038,
      "Ġhowever": 2039,
      "AS": 2040,
      "ĠChrist": 2041,
      "amm": 2042,
      "atures": 2043,
      "oura": 2044,
      "ĠSome": 2045,
      "Ġproducts": 2046,
      "Ġlower": 2047,
      "Ġcases": 2048,
      "nal": 2049,
      "ips": 2050,
      "Ġaccording": 2051,
      "When": 2052,
      "Ġhouse": 2053,
      "Ġground": 2054,
      "Ġquality": 2055,
      "Ġ16": 2056,
      "Ġarticle": 2057,
      "Ġstudent": 2058,
      "app": 2059,
      "Ġsite": 2060,
      "ĠBrit": 2061,
      "ĠWorld": 2062,
      "overed": 2063,
      "Ġrole": 2064,
      "Ġnecess": 2065,
      "Ġrange": 2066,
      "Ġwind": 2067,
      "Ġnever": 2068,
      "chie": 2069,
      "side": 2070,
      "Ġwhether": 2071,
      "ites": 2072,
      "Ġ.": 2073,
      "lement": 2074,
      "Ġdeveloped": 2075,
      "Ġsubject": 2076,
      "Ġknowledge": 2077,
      "Ġdiet": 2078,
      "ley": 2079,
      "Ġ[": 2080,
      "Ġask": 2081,
      "Ġreduce": 2082,
      "verage": 2083,
      "Ġred": 2084,
      "ream": 2085,
      "Ġalready": 2086,
      "Ġdrug": 2087,
      "12": 2088,
      "osis": 2089,
      "rams": 2090,
      "Ġinflu": 2091,
      "Ġmind": 2092,
      "Ġprim": 2093,
      "Ġloss": 2094,
      "Ġclose": 2095,
      "Ġmedical": 2096,
      "amin": 2097,
      "Ġsoil": 2098,
      "Ġpred": 2099,
      "ĠThat": 2100,
      "Ġtell": 2101,
      "Ġoil": 2102,
      "ands": 2103,
      "ĠWith": 2104,
      "Ġfive": 2105,
      "Ġpublished": 2106,
      "ird": 2107,
      "Ġmass": 2108,
      "Ġevent": 2109,
      "Ġdone": 2110,
      "Ġsource": 2111,
      "Ġself": 2112,
      "Ġeff": 2113,
      "Ġansw": 2114,
      "esc": 2115,
      "Ġgeneral": 2116,
      "Ġens": 2117,
      "Ġfield": 2118,
      "ety": 2119,
      "Ġ30": 2120,
      "Ġsimple": 2121,
      "Ġanalysis": 2122,
      "Ġissues": 2123,
      "Ġrecomm": 2124,
      "Ġcut": 2125,
      "Ġseen": 2126,
      "Ġconcer": 2127,
      "ges": 2128,
      "ĠEarth": 2129,
      "ĠWar": 2130,
      "Ġrelations": 2131,
      "Ġquestion": 2132,
      "Ġfund": 2133,
      "Ġwhite": 2134,
      "fer": 2135,
      "Ġfurther": 2136,
      "Ġexerc": 2137,
      "Ġanimals": 2138,
      "Ġparticip": 2139,
      "Ġcomputer": 2140,
      "Ġfat": 2141,
      "Ġprop": 2142,
      "Ġgrowth": 2143,
      "ann": 2144,
      "Ġengine": 2145,
      "Ġur": 2146,
      "for": 2147,
      "Ġsurface": 2148,
      "Ġliter": 2149,
      "ĠLe": 2150,
      "Ġcreated": 2151,
      "Ġpotential": 2152,
      "Ġgreen": 2153,
      "Ġcity": 2154,
      "sych": 2155,
      "Ġbecame": 2156,
      "oon": 2157,
      "Ġglobal": 2158,
      "ĠStud": 2159,
      "duct": 2160,
      "Ġbuilding": 2161,
      "Ġpressure": 2162,
      "ĠIntern": 2163,
      "oman": 2164,
      "Ġactually": 2165,
      "Ġproduction": 2166,
      "Ġconsider": 2167,
      "Ġann": 2168,
      "ĠNorth": 2169,
      "Ġonce": 2170,
      "Ġsound": 2171,
      "ĠAmerica": 2172,
      "Ġquick": 2173,
      "Ġrecogn": 2174,
      "Ġstress": 2175,
      "augh": 2176,
      "ĠCal": 2177,
      "Ġvide": 2178,
      "Ġcomes": 2179,
      "Ġestab": 2180,
      "//": 2181,
      "Ġblack": 2182,
      "Ġmaterials": 2183,
      "Ġcollect": 2184,
      "Ġonline": 2185,
      "Ġsal": 2186,
      "Ġwide": 2187,
      "ibr": 2188,
      "ok": 2189,
      "ained": 2190,
      "ency": 2191,
      "Ġtoward": 2192,
      "Ġfri": 2193,
      "fact": 2194,
      "Ġparents": 2195,
      "ening": 2196,
      "istic": 2197,
      "Ġachie": 2198,
      "ĠGo": 2199,
      "oll": 2200,
      "Ġcirc": 2201,
      "reme": 2202,
      "edi": 2203,
      "ĠOne": 2204,
      "ĠJohn": 2205,
      "oose": 2206,
      "Ġreading": 2207,
      "Ġparts": 2208,
      "Ġreason": 2209,
      "Ġscientists": 2210,
      "To": 2211,
      "gest": 2212,
      "iam": 2213,
      "rel": 2214,
      "Ġdetail": 2215,
      "Ġvalue": 2216,
      "Ġprob": 2217,
      "Ġbat": 2218,
      "Ġcolor": 2219,
      "ĠCar": 2220,
      "ĠIm": 2221,
      "Ġdeg": 2222,
      "Ġdoc": 2223,
      "Ġprovides": 2224,
      "Ġpolic": 2225,
      "ison": 2226,
      "Ġunderstanding": 2227,
      "Ġgroups": 2228,
      "Ġopportun": 2229,
      "Ġfish": 2230,
      "uation": 2231,
      "Ġrelated": 2232,
      "Ġtradition": 2233,
      "Ġweight": 2234,
      "Ġneg": 2235,
      "Ġmodel": 2236,
      "Ġrepresent": 2237,
      "Ġsent": 2238,
      "Ġsafe": 2239,
      "unt": 2240,
      "Ġindic": 2241,
      "ference": 2242,
      "Wh": 2243,
      "Ġtaken": 2244,
      "ification": 2245,
      "Ġrate": 2246,
      "Ġability": 2247,
      "Ġstates": 2248,
      "like": 2249,
      "Ġeither": 2250,
      "Ġsuggest": 2251,
      "Ġaddress": 2252,
      "ump": 2253,
      "roll": 2254,
      "yn": 2255,
      "You": 2256,
      "ĠShe": 2257,
      "ĠAss": 2258,
      "utes": 2259,
      "Ġstat": 2260,
      "Ġclean": 2261,
      "://": 2262,
      "Ġsingle": 2263,
      "Ġchemical": 2264,
      "Ġ=": 2265,
      "ivity": 2266,
      "Ġcoll": 2267,
      "Ġwhole": 2268,
      "ask": 2269,
      "ĠAust": 2270,
      "Ġliving": 2271,
      "Ġfamil": 2272,
      "ivil": 2273,
      "Ġidea": 2274,
      "ibility": 2275,
      "ĠSouth": 2276,
      "Ġrather": 2277,
      "ĠGe": 2278,
      "Ġsize": 2279,
      "Ġlay": 2280,
      "Ġneeded": 2281,
      "Ġoffic": 2282,
      "Ġcondition": 2283,
      "str": 2284,
      "ival": 2285,
      "Ġhistor": 2286,
      "Ġproduce": 2287,
      "Ġhold": 2288,
      "aim": 2289,
      "Ġemploy": 2290,
      "Ġpractice": 2291,
      "Ġhab": 2292,
      "ney": 2293,
      "sh": 2294,
      "Ġreact": 2295,
      "Ġgas": 2296,
      "ule": 2297,
      "ournal": 2298,
      "ued": 2299,
      "Ġjob": 2300,
      "enn": 2301,
      "Al": 2302,
      "astic": 2303,
      "yle": 2304,
      "iple": 2305,
      "artment": 2306,
      "Ġcho": 2307,
      "urity": 2308,
      "Ġsoft": 2309,
      "iction": 2310,
      "val": 2311,
      "ĠFl": 2312,
      "30": 2313,
      "Ġ14": 2314,
      "Ġabs": 2315,
      "aging": 2316,
      "ĠTr": 2317,
      "erve": 2318,
      "Ch": 2319,
      "Ġcauses": 2320,
      "lying": 2321,
      "Ġsuff": 2322,
      "oes": 2323,
      "idered": 2324,
      "illed": 2325,
      "Ġfeed": 2326,
      "Ġexperien": 2327,
      "Ġshows": 2328,
      "Ġinit": 2329,
      "Ġsleep": 2330,
      "Ġeat": 2331,
      "ER": 2332,
      "Ġinj": 2333,
      "Ġlink": 2334,
      "ications": 2335,
      "Ġver": 2336,
      "Ġtot": 2337,
      "Ġarch": 2338,
      "uel": 2339,
      "ĠGerm": 2340,
      "Ġmicro": 2341,
      "Ġsam": 2342,
      "urs": 2343,
      "ores": 2344,
      "iol": 2345,
      "Ġge": 2346,
      "Ġkids": 2347,
      "Ġpay": 2348,
      "Ġnational": 2349,
      "ublic": 2350,
      "Ġmeet": 2351,
      "ervation": 2352,
      "mber": 2353,
      "Ġrepl": 2354,
      "Ġdisord": 2355,
      "ĠBy": 2356,
      "Ġfrequ": 2357,
      "fficient": 2358,
      "Ġavoid": 2359,
      "âĢ¦": 2360,
      "Ġvers": 2361,
      "Ġpage": 2362,
      "Ġla": 2363,
      "Ġassociated": 2364,
      "abor": 2365,
      "put": 2366,
      "Ġwin": 2367,
      "cient": 2368,
      "ensive": 2369,
      "ĠDep": 2370,
      "Ġ100": 2371,
      "Ġincreased": 2372,
      "Ġentire": 2373,
      "Ġevidence": 2374,
      "Ġfail": 2375,
      "Ġmonths": 2376,
      "rict": 2377,
      "ĠGen": 2378,
      "Ġfoods": 2379,
      "Ġthemselves": 2380,
      "acks": 2381,
      "ze": 2382,
      "Ġstop": 2383,
      "Ġhalf": 2384,
      "ystem": 2385,
      "Ġport": 2386,
      "Ġfactors": 2387,
      "org": 2388,
      "aced": 2389,
      "Ġ11": 2390,
      "Ġthought": 2391,
      "lease": 2392,
      "ĠMay": 2393,
      "Ġdog": 2394,
      "Ġever": 2395,
      "Ġconsidered": 2396,
      "oints": 2397,
      "Ġwrite": 2398,
      "hing": 2399,
      "Ġeasy": 2400,
      "ma": 2401,
      "reg": 2402,
      "ĠNe": 2403,
      "ply": 2404,
      "arent": 2405,
      "Ġcat": 2406,
      "Ġalmost": 2407,
      "ging": 2408,
      "Ġmarket": 2409,
      "Ġrequired": 2410,
      "Ġlives": 2411,
      "vere": 2412,
      "Ġrecent": 2413,
      "ĠAb": 2414,
      "ections": 2415,
      "emic": 2416,
      "Ġce": 2417,
      "rown": 2418,
      "Ġmanagement": 2419,
      "Ġi": 2420,
      "Ġpurp": 2421,
      "oph": 2422,
      "aily": 2423,
      "Ġprote": 2424,
      "ĠSchool": 2425,
      "Ġthroughout": 2426,
      "Ġrelationship": 2427,
      "urch": 2428,
      "Ġhelps": 2429,
      "ened": 2430,
      "pro": 2431,
      "Ġcarbon": 2432,
      "Ġfarm": 2433,
      "Ġcontact": 2434,
      "Ġpoll": 2435,
      "Ġpersonal": 2436,
      "Ġcomplex": 2437,
      "Ġheat": 2438,
      "aged": 2439,
      "ccording": 2440,
      "Ġmodern": 2441,
      "NA": 2442,
      "Ġteachers": 2443,
      "ront": 2444,
      "Ġspread": 2445,
      "Ġstrateg": 2446,
      "Ġtaking": 2447,
      "Ġdiagn": 2448,
      "Ġmusic": 2449,
      "iddle": 2450,
      "icles": 2451,
      "Ġassess": 2452,
      "ĠMar": 2453,
      "based": 2454,
      "Ġemer": 2455,
      "Ġfru": 2456,
      "Ġtemperature": 2457,
      "Ġnature": 2458,
      "Ġpict": 2459,
      "Ġwild": 2460,
      "Ġenvironmental": 2461,
      "Ġwebs": 2462,
      "Ġvirus": 2463,
      "Ġrights": 2464,
      "ences": 2465,
      "Ġcame": 2466,
      "Ġcop": 2467,
      "Ġcaused": 2468,
      "ĠHist": 2469,
      "ĠInstit": 2470,
      "Ġdest": 2471,
      "Ġdesigned": 2472,
      "Ġbur": 2473,
      "But": 2474,
      "Ġpopular": 2475,
      "Ġcontent": 2476,
      "On": 2477,
      "ĠResearch": 2478,
      "Ġbreak": 2479,
      "Ġmembers": 2480,
      "Ġarg": 2481,
      "gar": 2482,
      "onse": 2483,
      "Ġreturn": 2484,
      "Ġtravel": 2485,
      "Ġincludes": 2486,
      "Ġ50": 2487,
      "ĠGu": 2488,
      "anced": 2489,
      "Ġhours": 2490,
      "Ġmeasure": 2491,
      "room": 2492,
      "Ġmoney": 2493,
      "utions": 2494,
      "Ġschools": 2495,
      "itud": 2496,
      "Ġeconomic": 2497,
      "Ġvariety": 2498,
      "Ġbenefits": 2499,
      "Ġpattern": 2500,
      "ĠAm": 2501,
      "epend": 2502,
      "Ġservices": 2503,
      "uck": 2504,
      "erous": 2505,
      "hib": 2506,
      "ising": 2507,
      "Ġregion": 2508,
      "11": 2509,
      "Ġregular": 2510,
      "abet": 2511,
      "Ġsuper": 2512,
      "Ġ--": 2513,
      "Ġindustry": 2514,
      "ĠMan": 2515,
      "Ġlonger": 2516,
      "ĠPr": 2517,
      "ĠScience": 2518,
      "ming": 2519,
      "Ġbar": 2520,
      "Ġast": 2521,
      "Ġapproach": 2522,
      "Ġbacter": 2523,
      "Ġstructure": 2524,
      "chan": 2525,
      "ĠState": 2526,
      "oses": 2527,
      "ĠComp": 2528,
      "Ġbill": 2529,
      "ĠCont": 2530,
      "âĢ¢": 2531,
      "Ġcheck": 2532,
      "ober": 2533,
      "Ġsurv": 2534,
      "Ġpath": 2535,
      "Ġcannot": 2536,
      "ches": 2537,
      "rences": 2538,
      "Ġuses": 2539,
      "Ġdom": 2540,
      "Ġbuilt": 2541,
      "ronic": 2542,
      "Ġtherap": 2543,
      "Ġdeveloping": 2544,
      "Ġinteract": 2545,
      "Ġvisit": 2546,
      "go": 2547,
      "Ġsomet": 2548,
      "pts": 2549,
      "Ġincreasing": 2550,
      "Ġmeaning": 2551,
      "ows": 2552,
      "Ġtar": 2553,
      "Ġexperim": 2554,
      "Ġcompany": 2555,
      "Ġwritten": 2556,
      "Ġ|": 2557,
      ".)": 2558,
      "Ġhtt": 2559,
      "vey": 2560,
      "Ġsat": 2561,
      "Ġaccount": 2562,
      "Ġreview": 2563,
      "Ġsix": 2564,
      "Ġsociety": 2565,
      "oles": 2566,
      "Ġencoura": 2567,
      "Ġ13": 2568,
      "Ġ198": 2569,
      "Ġthing": 2570,
      "yl": 2571,
      "eb": 2572,
      "sequ": 2573,
      "eter": 2574,
      "Ġetc": 2575,
      "ĠX": 2576,
      "Ġnecessary": 2577,
      "Ġbegan": 2578,
      "ĠSoc": 2579,
      "izing": 2580,
      "Ġmaintain": 2581,
      "aving": 2582,
      "Ġpositive": 2583,
      "Ġmor": 2584,
      "fully": 2585,
      "Ġaction": 2586,
      "Ġbehavior": 2587,
      "icine": 2588,
      "pid": 2589,
      "Ġbring": 2590,
      "ils": 2591,
      "ume": 2592,
      "Ġtook": 2593,
      "Ġelectric": 2594,
      "Ġdeb": 2595,
      "Ġvacc": 2596,
      "oor": 2597,
      "Ġlif": 2598,
      "Ġyet": 2599,
      "Ġaverage": 2600,
      "ĠÂ": 2601,
      "Ġslow": 2602,
      "Ġconduct": 2603,
      "15": 2604,
      "ese": 2605,
      "Ġgetting": 2606,
      "Ġdamage": 2607,
      "lt": 2608,
      "ES": 2609,
      "Ġsaf": 2610,
      "olic": 2611,
      "rad": 2612,
      "Ġprevious": 2613,
      "Ġpolitical": 2614,
      "Ġdoing": 2615,
      "ĠAct": 2616,
      "ĠRep": 2617,
      "Ġdoesn": 2618,
      "ĠWhile": 2619,
      "Ġrelig": 2620,
      "ades": 2621,
      "asc": 2622,
      "Ġissue": 2623,
      "ĠCenter": 2624,
      "Ġimage": 2625,
      "Ġconc": 2626,
      "apan": 2627,
      "Ġitself": 2628,
      "Ġprograms": 2629,
      "ĠAustral": 2630,
      "ĠYork": 2631,
      "Ġbasic": 2632,
      "itation": 2633,
      "ai": 2634,
      "Ġut": 2635,
      "Ġidentify": 2636,
      "usion": 2637,
      "Ġsometimes": 2638,
      "mon": 2639,
      "ada": 2640,
      "Ġarr": 2641,
      "Ġdefin": 2642,
      "hold": 2643,
      "Ġmatter": 2644,
      "hood": 2645,
      "ography": 2646,
      "Ġmach": 2647,
      "Ġfire": 2648,
      "ials": 2649,
      "Ġideas": 2650,
      "Ġindividuals": 2651,
      "Ġbab": 2652,
      "Ġexc": 2653,
      "Ġlove": 2654,
      "Ġdeep": 2655,
      "elling": 2656,
      "ched": 2657,
      "estern": 2658,
      "Ġsense": 2659,
      "Ġago": 2660,
      "Ġgrowing": 2661,
      "rast": 2662,
      "Ġnormal": 2663,
      "ules": 2664,
      "inary": 2665,
      "ederal": 2666,
      "Ġste": 2667,
      "Ġsimply": 2668,
      "Ġvideo": 2669,
      "Ġextreme": 2670,
      "reng": 2671,
      "Ġfig": 2672,
      "Ġ/": 2673,
      "Ġthreat": 2674,
      "Ġbelieve": 2675,
      "Ġsepar": 2676,
      "ricult": 2677,
      "Ġtotal": 2678,
      "Ġsources": 2679,
      "Ġservice": 2680,
      "Ġveget": 2681,
      "Ġshare": 2682,
      "Ġgard": 2683,
      "Ġsomeone": 2684,
      "AR": 2685,
      "duc": 2686,
      "Ġtraining": 2687,
      "ĠCount": 2688,
      "mb": 2689,
      "ufact": 2690,
      "Ġdiseases": 2691,
      "umb": 2692,
      "Ġobserv": 2693,
      "Ġanimal": 2694,
      "Ġsafety": 2695,
      "Ġmethods": 2696,
      "Ġlooking": 2697,
      "apt": 2698,
      "Ġharm": 2699,
      "Ġec": 2700,
      "light": 2701,
      "Ġbal": 2702,
      "Ġpriv": 2703,
      "ĠAfter": 2704,
      "Ġdraw": 2705,
      "Ġwarm": 2706,
      "Ġevents": 2707,
      "Ġnumbers": 2708,
      "aches": 2709,
      "Ġshown": 2710,
      "ropri": 2711,
      "Ġfeet": 2712,
      "lands": 2713,
      "Ġdaily": 2714,
      "amed": 2715,
      "issions": 2716,
      "Ġprinc": 2717,
      "ĠPe": 2718,
      "Ġremov": 2719,
      "Ġserious": 2720,
      "aff": 2721,
      "Ġsex": 2722,
      "istics": 2723,
      "ĠBritish": 2724,
      "Ġ25": 2725,
      "Ġterms": 2726,
      "Ġled": 2727,
      "Ġpsych": 2728,
      "Ġfem": 2729,
      "rought": 2730,
      "ID": 2731,
      "ulations": 2732,
      "Ġtools": 2733,
      "Ġsubst": 2734,
      "uge": 2735,
      "Ġactive": 2736,
      "Ġemot": 2737,
      "16": 2738,
      "Ġcompan": 2739,
      "Ġwood": 2740,
      "Ġface": 2741,
      "Ġresponse": 2742,
      "Ġculture": 2743,
      "Ġupon": 2744,
      "Ġstar": 2745,
      "ender": 2746,
      "ene": 2747,
      "lex": 2748,
      "itary": 2749,
      "Ġprovided": 2750,
      "ĠCo": 2751,
      "Ġbooks": 2752,
      "het": 2753,
      "Ġanswer": 2754,
      "wh": 2755,
      "ners": 2756,
      "ĠYour": 2757,
      "Ġstandard": 2758,
      "imately": 2759,
      "aling": 2760,
      "Ġorigin": 2761,
      "load": 2762,
      "Ġ197": 2763,
      "Ġcontinue": 2764,
      "Ġsmo": 2765,
      "ounts": 2766,
      "Ġinvolved": 2767,
      "Ġsolar": 2768,
      "Ġrev": 2769,
      "Ġmedia": 2770,
      "ns": 2771,
      "Ġtakes": 2772,
      "Ġtarget": 2773,
      "ĠHis": 2774,
      "Ġcritical": 2775,
      "Ġchalleng": 2776,
      "Ġdispl": 2777,
      "irm": 2778,
      "Ġoutside": 2779,
      "ength": 2780,
      "Ġox": 2781,
      "Ġbra": 2782,
      "Ġsqu": 2783,
      "Ġinside": 2784,
      "pe": 2785,
      "ĠCO": 2786,
      "Ġensure": 2787,
      "Ġprec": 2788,
      "17": 2789,
      "Ġcorrect": 2790,
      "Ġnight": 2791,
      "Ġearth": 2792,
      "AT": 2793,
      "Ġtree": 2794,
      "Ġheav": 2795,
      "ctions": 2796,
      "Ġseem": 2797,
      "Ġseries": 2798,
      "Ġregard": 2799,
      "14": 2800,
      "Ġsust": 2801,
      "Ġexercise": 2802,
      "minist": 2803,
      "istance": 2804,
      "Ġremain": 2805,
      "cean": 2806,
      "Ġattention": 2807,
      "Ġcompl": 2808,
      "Ġtrees": 2809,
      "new": 2810,
      "Ġtrue": 2811,
      "lies": 2812,
      "ises": 2813,
      "ister": 2814,
      "Ġcompon": 2815,
      "ĠDo": 2816,
      "Ġmagn": 2817,
      "raft": 2818,
      "Ġhumans": 2819,
      "Ġscientific": 2820,
      "ĠInstitute": 2821,
      "Ġforms": 2822,
      "Ġhyd": 2823,
      "Ġposition": 2824,
      "iforn": 2825,
      "inks": 2826,
      "Ġmechan": 2827,
      "Ġselect": 2828,
      "ellow": 2829,
      "Ġlat": 2830,
      "Ġstreng": 2831,
      "Ġeye": 2832,
      "Ġap": 2833,
      "osing": 2834,
      "Ġadded": 2835,
      "Ġmovement": 2836,
      "Ġallows": 2837,
      "Ġmess": 2838,
      "Ġviol": 2839,
      "Ġinfection": 2840,
      "Ġprep": 2841,
      "Ġeasily": 2842,
      "ls": 2843,
      "itis": 2844,
      "Ġforest": 2845,
      "--": 2846,
      "atives": 2847,
      "Ġmental": 2848,
      "overy": 2849,
      "Ġsea": 2850,
      "Ġpoor": 2851,
      "Ġdoctor": 2852,
      "Ġteeth": 2853,
      "Ġclaim": 2854,
      "Ġ196": 2855,
      "Ġtur": 2856,
      "ground": 2857,
      "ĠEm": 2858,
      "ĠPres": 2859,
      "Ġprobably": 2860,
      "Ġnews": 2861,
      "fect": 2862,
      "aries": 2863,
      "Ġcamp": 2864,
      "ĠPar": 2865,
      "ustom": 2866,
      "joy": 2867,
      "right": 2868,
      "Ġproduced": 2869,
      "Ġlog": 2870,
      "Ġdemon": 2871,
      "my": 2872,
      "Ġunique": 2873,
      "useum": 2874,
      "Ġir": 2875,
      "know": 2876,
      "verse": 2877,
      "Ġgreater": 2878,
      "Ġdang": 2879,
      "ĠJapan": 2880,
      "ĠApp": 2881,
      "Ġmanufact": 2882,
      "Ġbad": 2883,
      "Ġquickly": 2884,
      "Ġoriginal": 2885,
      "bor": 2886,
      "ino": 2887,
      "Ġreported": 2888,
      "ĠPre": 2889,
      "rior": 2890,
      "Ġparticularly": 2891,
      "Ġvit": 2892,
      "Ġinvestig": 2893,
      "Ġdifference": 2894,
      "ifornia": 2895,
      "bo": 2896,
      "Ġcover": 2897,
      "Ġessential": 2898,
      "Ġimplement": 2899,
      "Ġcompet": 2900,
      "ĠMany": 2901,
      "Ġtiss": 2902,
      "____": 2903,
      "Ġwebsite": 2904,
      "eration": 2905,
      "Ġsil": 2906,
      "abetes": 2907,
      "hest": 2908,
      "ĠSu": 2909,
      "Ġpatient": 2910,
      "Ġoffer": 2911,
      "osure": 2912,
      "hel": 2913,
      "ucle": 2914,
      "Ġstra": 2915,
      "Ġthinking": 2916,
      "Ġstarted": 2917,
      "Ġgenerally": 2918,
      "Ġlate": 2919,
      "Ġrelative": 2920,
      "Ġhabit": 2921,
      "Ġrefer": 2922,
      "So": 2923,
      "ops": 2924,
      "Ġminutes": 2925,
      "Ġdry": 2926,
      "set": 2927,
      "Ġdetermine": 2928,
      "Ġnation": 2929,
      "Ġteaching": 2930,
      "IN": 2931,
      "nov": 2932,
      "Ġinstead": 2933,
      "Ġacid": 2934,
      "ecause": 2935,
      "ĠMost": 2936,
      "Ġinteg": 2937,
      "Ġdocument": 2938,
      "Ġstay": 2939,
      "ĠDay": 2940,
      "Ġthous": 2941,
      "ript": 2942,
      "iot": 2943,
      "arily": 2944,
      "ancy": 2945,
      "Ġlack": 2946,
      "osition": 2947,
      "ĠEduc": 2948,
      "where": 2949,
      "Ġvari": 2950,
      "13": 2951,
      "Ġroad": 2952,
      "Ġcard": 2953,
      "ounds": 2954,
      "ĠChild": 2955,
      "IS": 2956,
      "Ġsearch": 2957,
      "One": 2958,
      "Ġhot": 2959,
      "Ġrout": 2960,
      "Ġsevere": 2961,
      "Ġsn": 2962,
      "Ġtraditional": 2963,
      "Ġwall": 2964,
      "idge": 2965,
      "ĠPer": 2966,
      "ĠHar": 2967,
      "rs": 2968,
      "200": 2969,
      "Ġeating": 2970,
      "Ġachieve": 2971,
      "ying": 2972,
      "Ġcontains": 2973,
      "gency": 2974,
      "ĠWill": 2975,
      "Ġegg": 2976,
      "Ġadults": 2977,
      "ĠIndia": 2978,
      "eding": 2979,
      "ĠJew": 2980,
      "Ġquite": 2981,
      "ĠMin": 2982,
      "Ġemb": 2983,
      "ban": 2984,
      "rench": 2985,
      "Ġleading": 2986,
      "'re": 2987,
      "oming": 2988,
      "Ġhighly": 2989,
      "asons": 2990,
      "iques": 2991,
      "wor": 2992,
      "ĠCalifornia": 2993,
      "Ġbit": 2994,
      "ties": 2995,
      "Ġcompanies": 2996,
      "bre": 2997,
      "coh": 2998,
      "Ġfoot": 2999,
      "Ġwaste": 3000,
      "Ġleaves": 3001,
      "rated": 3002,
      "Ġ40": 3003,
      "rim": 3004,
      "ĠMe": 3005,
      "Ġattack": 3006,
      "Ġanaly": 3007,
      "life": 3008,
      "ĠNo": 3009,
      "Ġnetwork": 3010,
      "ĠDepartment": 3011,
      "Ġaltern": 3012,
      "Ġincluded": 3013,
      "ashing": 3014,
      "Ġbehind": 3015,
      "Ġlarger": 3016,
      "iency": 3017,
      "rig": 3018,
      "Ġcit": 3019,
      "Ġhar": 3020,
      "Ġestim": 3021,
      "Ġperformance": 3022,
      "alking": 3023,
      "Ġcele": 3024,
      "Ġtri": 3025,
      "ided": 3026,
      "Ġpoints": 3027,
      "imum": 3028,
      "Ġconcent": 3029,
      "ĠCons": 3030,
      "ached": 3031,
      "Ġfamilies": 3032,
      "Ġuseful": 3033,
      "Ġcolon": 3034,
      "Ġdou": 3035,
      "Ġprogress": 3036,
      "Ġinternational": 3037,
      "He": 3038,
      "ĠUs": 3039,
      "Ġbirth": 3040,
      "Ġlargest": 3041,
      "Ġexamples": 3042,
      "ĠChina": 3043,
      "Ġtend": 3044,
      "erson": 3045,
      "Ġimages": 3046,
      "sect": 3047,
      "Ġenjoy": 3048,
      "Ġeval": 3049,
      "Ġaccept": 3050,
      "ĠQu": 3051,
      "Ġcommunities": 3052,
      "ĠKing": 3053,
      "Ġprimary": 3054,
      "Ã©": 3055,
      "ĠMore": 3056,
      "Ġsoftware": 3057,
      "Ġ194": 3058,
      "ief": 3059,
      "ĠGl": 3060,
      "ropriate": 3061,
      "Ġtalk": 3062,
      "ĠInt": 3063,
      "Ġaud": 3064,
      "Ġcoun": 3065,
      "Ġtax": 3066,
      "uries": 3067,
      "gn": 3068,
      "Ġcross": 3069,
      "Ġfinanc": 3070,
      "ĠII": 3071,
      "icated": 3072,
      "Ġbacteria": 3073,
      "Ġconsist": 3074,
      "Ġfav": 3075,
      "Ġones": 3076,
      "ext": 3077,
      "Ġsugar": 3078,
      "Ġindepend": 3079,
      "oring": 3080,
      "Ġextra": 3081,
      "Ġaff": 3082,
      "Ġtheory": 3083,
      "Ġforce": 3084,
      "ĠAc": 3085,
      "Ġmultiple": 3086,
      "Ġbreat": 3087,
      "Ġsoon": 3088,
      "isions": 3089,
      "cell": 3090,
      "dd": 3091,
      "Ġleaders": 3092,
      "dom": 3093,
      "Ġteacher": 3094,
      "Ġsustain": 3095,
      "undred": 3096,
      "haps": 3097,
      "ĠInf": 3098,
      "Ġattem": 3099,
      "Ġnegative": 3100,
      "Ġreve": 3101,
      "Ġdecre": 3102,
      "bol": 3103,
      "Ġseason": 3104,
      "ĠNot": 3105,
      "Ġconcept": 3106,
      "anks": 3107,
      "Ġcompared": 3108,
      "Ġdevices": 3109,
      "Ġ24": 3110,
      "Ġweb": 3111,
      "Ġsummer": 3112,
      "arr": 3113,
      "ension": 3114,
      "Ġfront": 3115,
      "Ġdirectly": 3116,
      "Ġaim": 3117,
      "ĠLear": 3118,
      "ĠRec": 3119,
      "ribution": 3120,
      "vention": 3121,
      "Ġrespect": 3122,
      "ana": 3123,
      "Ġadditional": 3124,
      "Ġexpect": 3125,
      "term": 3126,
      "Ġveh": 3127,
      "cies": 3128,
      "Ġhor": 3129,
      "Ġtests": 3130,
      "itch": 3131,
      "Ġexpress": 3132,
      "iece": 3133,
      "Ġpolicy": 3134,
      "Ġcivil": 3135,
      "Ġful": 3136,
      "Ġtable": 3137,
      "ibrary": 3138,
      "Ġfast": 3139,
      "Ġsold": 3140,
      "cohol": 3141,
      "Ġcreating": 3142,
      "lied": 3143,
      "ĠSec": 3144,
      "Ġproced": 3145,
      "aly": 3146,
      "Ġnearly": 3147,
      "Ġweeks": 3148,
      "Ġx": 3149,
      "Ġhands": 3150,
      "Ġaw": 3151,
      "Ġrare": 3152,
      "Ġspeak": 3153,
      "Ġaccur": 3154,
      "These": 3155,
      "iers": 3156,
      "Ġdark": 3157,
      "Ġcapt": 3158,
      "ively": 3159,
      "Ġgoal": 3160,
      "Ġinstall": 3161,
      "ius": 3162,
      "son": 3163,
      "Ġancient": 3164,
      "Ġexact": 3165,
      "Ġsecurity": 3166,
      "Ġeth": 3167,
      "Ġreflect": 3168,
      "Ġfa": 3169,
      "ĠKe": 3170,
      "Ġsupply": 3171,
      "Ġpack": 3172,
      "rogen": 3173,
      "istry": 3174,
      "Ġyourself": 3175,
      "ologies": 3176,
      "Ġ:": 3177,
      "ift": 3178,
      "Ġcrop": 3179,
      "unch": 3180,
      "Ġcommit": 3181,
      "Ġmole": 3182,
      "na": 3183,
      "Ġ2012": 3184,
      "Ġtechniques": 3185,
      "Ġimmedi": 3186,
      "Ġprojects": 3187,
      "Ġtown": 3188,
      "mar": 3189,
      "Ġpurpose": 3190,
      "Ġborn": 3191,
      "Ġdemonstr": 3192,
      "Ġice": 3193,
      "Ġbul": 3194,
      "Ġimportance": 3195,
      "ĠJan": 3196,
      "head": 3197,
      "Ġcontribut": 3198,
      "vant": 3199,
      "ĠProg": 3200,
      "ĠEd": 3201,
      "Ġeyes": 3202,
      "Ex": 3203,
      "ĠOf": 3204,
      "Ġsolution": 3205,
      "Ġthird": 3206,
      "Ġcool": 3207,
      "uary": 3208,
      "Ġsurround": 3209,
      "Ġcustom": 3210,
      "Ġweather": 3211,
      "ĠServ": 3212,
      "resh": 3213,
      "Ġhttp": 3214,
      "ille": 3215,
      "ĠHere": 3216,
      "Ġelements": 3217,
      "mosp": 3218,
      "Ġbirds": 3219,
      "Ġbroad": 3220,
      "cles": 3221,
      "Ġ,": 3222,
      "Ġlines": 3223,
      "ription": 3224,
      "ĠJu": 3225,
      "ĠAfrica": 3226,
      "ĠWest": 3227,
      "itude": 3228,
      "cks": 3229,
      "Ġplaces": 3230,
      "ĠEuropean": 3231,
      "Ġcam": 3232,
      "Ġgame": 3233,
      "AN": 3234,
      "ON": 3235,
      "oly": 3236,
      "Ġprotein": 3237,
      "Ġbase": 3238,
      "Ġspeed": 3239,
      "ulate": 3240,
      "pril": 3241,
      "rial": 3242,
      "Ġcold": 3243,
      "Ġclin": 3244,
      "Ġtesting": 3245,
      "By": 3246,
      "iter": 3247,
      "www": 3248,
      "ĠRead": 3249,
      "Ġbeginning": 3250,
      "Ġgot": 3251,
      "Ġfuel": 3252,
      "ĠEl": 3253,
      "Ġcred": 3254,
      "Ġfeatures": 3255,
      "Ġrecently": 3256,
      "elt": 3257,
      "ĠPark": 3258,
      "Ġcenter": 3259,
      "year": 3260,
      "ĠMarch": 3261,
      "ields": 3262,
      "rate": 3263,
      "Ġhope": 3264,
      "book": 3265,
      "Ġprin": 3266,
      "Ġcentral": 3267,
      "Ġapplication": 3268,
      "Ġsites": 3269,
      "ĠHistory": 3270,
      "Ġlost": 3271,
      "ĠAfrican": 3272,
      "eed": 3273,
      "uth": 3274,
      "ĠAg": 3275,
      "ĠOther": 3276,
      "Ġdevice": 3277,
      "water": 3278,
      "Ġquant": 3279,
      "ror": 3280,
      "Ġtransport": 3281,
      "come": 3282,
      "hens": 3283,
      "Ġmemory": 3284,
      "Ġfriends": 3285,
      "Ġfit": 3286,
      "Ġhost": 3287,
      "And": 3288,
      "ĠAssoci": 3289,
      "Ġwinter": 3290,
      "outhern": 3291,
      "Ġfib": 3292,
      "Ġreach": 3293,
      "Ġfight": 3294,
      "Ġaspect": 3295,
      "ipl": 3296,
      "Ġlocated": 3297,
      "ĠSw": 3298,
      "uff": 3299,
      "Ġelse": 3300,
      "cil": 3301,
      "Ġcarry": 3302,
      "Ġgives": 3303,
      "Ġchoose": 3304,
      "Ġrequires": 3305,
      "Ġlength": 3306,
      "atur": 3307,
      "idents": 3308,
      "ĠCounty": 3309,
      "lier": 3310,
      "fort": 3311,
      "Ġrain": 3312,
      "Ġhundred": 3313,
      "omb": 3314,
      "Ġang": 3315,
      "Ġrob": 3316,
      "Ġisn": 3317,
      "ĠRiver": 3318,
      "Ġsection": 3319,
      "Ġsituation": 3320,
      "ĠAug": 3321,
      "isms": 3322,
      "Ġdiabetes": 3323,
      "oud": 3324,
      "Ġcosts": 3325,
      "Ġbott": 3326,
      "pper": 3327,
      "Ġpan": 3328,
      "Ġalthough": 3329,
      "âĢĿ.": 3330,
      "Ġheld": 3331,
      "vest": 3332,
      "orthern": 3333,
      "odies": 3334,
      "ha": 3335,
      "lection": 3336,
      "ĠMon": 3337,
      "ĠTw": 3338,
      "Ġimpl": 3339,
      "ĠSm": 3340,
      "OR": 3341,
      "Ġdigital": 3342,
      "ĠHer": 3343,
      "Ġtowards": 3344,
      "Ġeveryone": 3345,
      "iles": 3346,
      "Ġexplain": 3347,
      "ĠArt": 3348,
      "ĠAmericans": 3349,
      "ama": 3350,
      "ĠIndian": 3351,
      "Ġmom": 3352,
      "Ġvalues": 3353,
      "Ġapplications": 3354,
      "Ġrock": 3355,
      "Ġtit": 3356,
      "back": 3357,
      "With": 3358,
      "Ġwa": 3359,
      "Ġnucle": 3360,
      "Ġplanet": 3361,
      "Ġtypically": 3362,
      "While": 3363,
      "Ġmonitor": 3364,
      "Ġtherefore": 3365,
      "oday": 3366,
      "Ġinstit": 3367,
      "olar": 3368,
      "Ġbeaut": 3369,
      "PA": 3370,
      "Ġwhose": 3371,
      "25": 3372,
      "Ġmiddle": 3373,
      "Ġconnect": 3374,
      "Ġball": 3375,
      "entially": 3376,
      "Ġpet": 3377,
      "Ġtold": 3378,
      "Ġult": 3379,
      "Ġopportunity": 3380,
      "Ġmix": 3381,
      "Ġinteresting": 3382,
      "edia": 3383,
      "At": 3384,
      "Ġdiv": 3385,
      "Ġthus": 3386,
      "Ġprior": 3387,
      "Ġstri": 3388,
      "Ġrespond": 3389,
      "Ġolder": 3390,
      "Ġdiscovered": 3391,
      "Ġimag": 3392,
      "ipment": 3393,
      "yond": 3394,
      "ster": 3395,
      "Ġbecomes": 3396,
      "ĠTra": 3397,
      "Ġguide": 3398,
      "Ġnutrit": 3399,
      "Ġdeal": 3400,
      "Ġbehavi": 3401,
      "Ġefforts": 3402,
      "rote": 3403,
      "Ġscreen": 3404,
      "Ġobjects": 3405,
      "equ": 3406,
      "Ġdead": 3407,
      "ĠInternational": 3408,
      "Ġaffected": 3409,
      "Ġrecommend": 3410,
      "Ġcommunication": 3411,
      "apter": 3412,
      "Ġtopic": 3413,
      "Ġcode": 3414,
      "ĠPart": 3415,
      "ĠTechn": 3416,
      "Ġmiles": 3417,
      "Ġestablished": 3418,
      "Ġagricult": 3419,
      "Ġlo": 3420,
      "Ġshape": 3421,
      "Ġprofessional": 3422,
      "Ġfinancial": 3423,
      "imin": 3424,
      "Ġinsp": 3425,
      "Ġseems": 3426,
      "izations": 3427,
      "Ġessays": 3428,
      "Ġpregn": 3429,
      "Ġstru": 3430,
      "ASA": 3431,
      "uk": 3432,
      "Ġlabor": 3433,
      "Ġoccurs": 3434,
      "Ġsmaller": 3435,
      "Ġcurrently": 3436,
      "Ġrates": 3437,
      "Ġgarden": 3438,
      "Ġresponsible": 3439,
      "Ġfram": 3440,
      "ĠEducation": 3441,
      "Ġcra": 3442,
      "wide": 3443,
      "Ġappropriate": 3444,
      "Ġgradu": 3445,
      "Ġ2011": 3446,
      "Ġremains": 3447,
      "Ġtrying": 3448,
      "bit": 3449,
      "Ġcommonly": 3450,
      "Ġcou": 3451,
      "Ġrich": 3452,
      "ashington": 3453,
      "exic": 3454,
      "Some": 3455,
      "Ġfile": 3456,
      "inct": 3457,
      "Ġswe": 3458,
      "oe": 3459,
      "Ġmount": 3460,
      "ĠOur": 3461,
      "Ġdrugs": 3462,
      "itect": 3463,
      "Ġkill": 3464,
      "bur": 3465,
      "Ġdied": 3466,
      "Ġimmune": 3467,
      "enge": 3468,
      "):": 3469,
      "Ġ2010": 3470,
      "Ġlimited": 3471,
      "Ġjoin": 3472,
      "Ġcollection": 3473,
      "Ġwent": 3474,
      "Ġgenetic": 3475,
      "Ġprotection": 3476,
      "uments": 3477,
      "Ġguid": 3478,
      "izes": 3479,
      "ĠChar": 3480,
      "Ġillness": 3481,
      "Ġprocesses": 3482,
      "Ġteach": 3483,
      "Ġ21": 3484,
      "aught": 3485,
      "ĠJune": 3486,
      "rag": 3487,
      "Ġeverything": 3488,
      "rong": 3489,
      "IV": 3490,
      "Ġrapid": 3491,
      "eal": 3492,
      "ĠAnt": 3493,
      "ĠGra": 3494,
      "Ġclassroom": 3495,
      "Ġsteps": 3496,
      "ĠFrench": 3497,
      "Ġbillion": 3498,
      "Ġautom": 3499,
      "can": 3500,
      "Ġmouth": 3501,
      "Ġdemand": 3502,
      "Ġadvant": 3503,
      "Ġroom": 3504,
      "Ġcoast": 3505,
      "Ġreceive": 3506,
      "Ġmap": 3507,
      "Ġfruit": 3508,
      "Ġbaby": 3509,
      "ĠEngland": 3510,
      "anish": 3511,
      "Ġalcohol": 3512,
      "Ġcultural": 3513,
      "cial": 3514,
      "Ġtransl": 3515,
      "ĠAlthough": 3516,
      "Ġplastic": 3517,
      "Ġbenefit": 3518,
      "Ġfederal": 3519,
      "Ġdisp": 3520,
      "imal": 3521,
      "Ġexposure": 3522,
      "eech": 3523,
      "ĠCanada": 3524,
      "rection": 3525,
      "Ġreasons": 3526,
      "Ġcalcul": 3527,
      "ĠCity": 3528,
      "reek": 3529,
      "Ġgoes": 3530,
      "Ġvisual": 3531,
      "Ġnorth": 3532,
      "ica": 3533,
      "Ġacad": 3534,
      "rees": 3535,
      "Ġ2013": 3536,
      "Ġinfluence": 3537,
      "rick": 3538,
      "ype": 3539,
      "Ġpiece": 3540,
      "Ġproperty": 3541,
      "IC": 3542,
      "Ġanything": 3543,
      "Ġsouth": 3544,
      "Ġworkers": 3545,
      "uman": 3546,
      "Ġatmosp": 3547,
      "Ġbrought": 3548,
      "Ġasked": 3549,
      "Ġwon": 3550,
      "iar": 3551,
      "yd": 3552,
      "Ġtox": 3553,
      "Ġadj": 3554,
      "Ġwond": 3555,
      "Ġep": 3556,
      "Ġinsect": 3557,
      "Ġstories": 3558,
      "Ġremember": 3559,
      "Ġdecision": 3560,
      "Ġspir": 3561,
      "ĠBar": 3562,
      "Ġrise": 3563,
      "ĠMy": 3564,
      "ĠReg": 3565,
      "att": 3566,
      "ĠApril": 3567,
      "Ġvia": 3568,
      "Ġmilitary": 3569,
      "iff": 3570,
      "Ġperfect": 3571,
      "Ġblock": 3572,
      "Ġcorn": 3573,
      "EN": 3574,
      "rome": 3575,
      "ĠGreat": 3576,
      "Ġnutri": 3577,
      "Ġexpected": 3578,
      "Ġpen": 3579,
      "Ġproviding": 3580,
      "icate": 3581,
      "Ġsigns": 3582,
      "ran": 3583,
      "Ġelectr": 3584,
      "Ġeconomy": 3585,
      "wise": 3586,
      "Ġdate": 3587,
      "Pro": 3588,
      "Ġpicture": 3589,
      "Ġbox": 3590,
      "Ġdisplay": 3591,
      "ED": 3592,
      "time": 3593,
      "Ġcelebr": 3594,
      "\".": 3595,
      "Ġequipment": 3596,
      "Ġfindings": 3597,
      "Ġfinal": 3598,
      "fess": 3599,
      "orpor": 3600,
      "inese": 3601,
      "Ġreceived": 3602,
      "Ġstage": 3603,
      "Ġemissions": 3604,
      "ords": 3605,
      "Ġscale": 3606,
      "Ġdecl": 3607,
      "Ġstyle": 3608,
      "ospital": 3609,
      "Ġmother": 3610,
      "used": 3611,
      "estic": 3612,
      "aur": 3613,
      "ĠSept": 3614,
      "Ġcitiz": 3615,
      "ĠJes": 3616,
      "Ġcontroll": 3617,
      "Ġcompletely": 3618,
      "ĠWashington": 3619,
      "Ġtherapy": 3620,
      "Ġmis": 3621,
      "hemat": 3622,
      "IT": 3623,
      "Ġconflic": 3624,
      "itable": 3625,
      "ĠUK": 3626,
      "ribute": 3627,
      "Ġinform": 3628,
      "ony": 3629,
      "ĠVir": 3630,
      "ĠMexic": 3631,
      "ula": 3632,
      "Ġusers": 3633,
      "ĠSystem": 3634,
      "ulated": 3635,
      "ĠPresident": 3636,
      "Ġgain": 3637,
      "ĠFrom": 3638,
      "Ġlocation": 3639,
      "Ġsuccessful": 3640,
      "Ġversion": 3641,
      "Ġexcept": 3642,
      "Ġunc": 3643,
      "Ġmig": 3644,
      "Ġleave": 3645,
      "ĠAustralia": 3646,
      "Ġadminist": 3647,
      "arian": 3648,
      "Ġfair": 3649,
      "Ġconstruction": 3650,
      "Ġhous": 3651,
      "ilos": 3652,
      "ĠMc": 3653,
      "oration": 3654,
      "ĠOct": 3655,
      "Ġagree": 3656,
      "Ġ+": 3657,
      "Ġmid": 3658,
      "Ġinstru": 3659,
      "Ġprivate": 3660,
      "Ġgir": 3661,
      "Ġgold": 3662,
      "Ġconce": 3663,
      "ygen": 3664,
      "era": 3665,
      "Ġmiss": 3666,
      "Ġbasis": 3667,
      "Ġjournal": 3668,
      "Ġbeg": 3669,
      "ĠEven": 3670,
      "uous": 3671,
      "Ġeffort": 3672,
      "ĠDav": 3673,
      "ĠFirst": 3674,
      "ellig": 3675,
      "Ġobtain": 3676,
      "Ġnamed": 3677,
      "Ġtissue": 3678,
      "Ġwatch": 3679,
      "Ġuser": 3680,
      "Ġ60": 3681,
      "Ġcapac": 3682,
      "ĠJuly": 3683,
      "Ġoverall": 3684,
      "Ġblue": 3685,
      "ĠMus": 3686,
      "Ġassign": 3687,
      "ocks": 3688,
      "ĠAugust": 3689,
      "Ġfresh": 3690,
      "ĠInc": 3691,
      "Ġcru": 3692,
      "Ġmal": 3693,
      "Ġitems": 3694,
      "vert": 3695,
      "mission": 3696,
      "Ġfear": 3697,
      "Ġanti": 3698,
      "Ġantib": 3699,
      "60": 3700,
      "Ġexplore": 3701,
      "Ġdisorder": 3702,
      "Ġdidn": 3703,
      "Ġtou": 3704,
      "Be": 3705,
      "Ġwoman": 3706,
      "Ġ2015": 3707,
      "omy": 3708,
      "Ġpredict": 3709,
      "Ġvict": 3710,
      "lick": 3711,
      "Ġcollege": 3712,
      "Ġcoming": 3713,
      "iences": 3714,
      "Ġsymbol": 3715,
      "ding": 3716,
      "Ġtooth": 3717,
      "ĠWilliam": 3718,
      "craft": 3719,
      "Ġplaced": 3720,
      "ham": 3721,
      "ĠGerman": 3722,
      "rew": 3723,
      "Ġoffers": 3724,
      "Ġglass": 3725,
      "Ġthousands": 3726,
      "Ġsett": 3727,
      "Ġbeyond": 3728,
      "Ġpurch": 3729,
      "Ġconsequ": 3730,
      "ford": 3731,
      "aper": 3732,
      "Ġsave": 3733,
      "Ġpowerful": 3734,
      "gy": 3735,
      "Ġmoving": 3736,
      "ste": 3737,
      "ĠWater": 3738,
      "Ġconstant": 3739,
      "Ġhuge": 3740,
      "Ġwrote": 3741,
      "Ġhistorical": 3742,
      "ibly": 3743,
      "Ġapprox": 3744,
      "Ġund": 3745,
      "ĠInst": 3746,
      "Ġ2014": 3747,
      "Ġdepend": 3748,
      "Ġefficient": 3749,
      "Ġemail": 3750,
      "Ġplease": 3751,
      "Ġenh": 3752,
      "gery": 3753,
      "Ġstandards": 3754,
      "Ġkid": 3755,
      "Ġdifferences": 3756,
      "Ġhappen": 3757,
      "ulum": 3758,
      "Ġpractices": 3759,
      "ĠDevelop": 3760,
      "atin": 3761,
      "see": 3762,
      "Ġalone": 3763,
      "iny": 3764,
      "Ġinterp": 3765,
      "Ġing": 3766,
      "Ġadop": 3767,
      "Ġproperties": 3768,
      "Ġassist": 3769,
      "ologist": 3770,
      "lor": 3771,
      "Ġmodels": 3772,
      "Ġstrength": 3773,
      "Ġfemale": 3774,
      "uro": 3775,
      "Ġunit": 3776,
      "Ġsaw": 3777,
      "ara": 3778,
      "ĠDis": 3779,
      "ĠUse": 3780,
      "pped": 3781,
      "Ġking": 3782,
      "80": 3783,
      "40": 3784,
      "bl": 3785,
      "Ġcommerc": 3786,
      "Ġinnov": 3787,
      "Ġmuscle": 3788,
      "Ġplans": 3789,
      "med": 3790,
      "su": 3791,
      "rec": 3792,
      "Ġincreases": 3793,
      "Ġcry": 3794,
      "ĠSur": 3795,
      "Ġpatterns": 3796,
      "ĠProgram": 3797,
      "Ġrules": 3798,
      "Ġattempt": 3799,
      "Ġsch": 3800,
      "ĠAccording": 3801,
      "Ġidentified": 3802,
      "ĠNow": 3803,
      "ald": 3804,
      "ĠEnvironment": 3805,
      "Ġmention": 3806,
      "care": 3807,
      "AC": 3808,
      "ĠThen": 3809,
      "Ġspring": 3810,
      "Ġgraph": 3811,
      "ceed": 3812,
      "lin": 3813,
      "Ġstatement": 3814,
      "Ġhear": 3815,
      "aters": 3816,
      "iful": 3817,
      "Ġhon": 3818,
      "Ġnative": 3819,
      "Ġbone": 3820,
      "Ġextremely": 3821,
      "Ġdegree": 3822,
      "Ġchallenges": 3823,
      "Ġnovel": 3824,
      "Ġten": 3825,
      "ĠAlso": 3826,
      "iable": 3827,
      "ĠSan": 3828,
      "ĠâĢ¦": 3829,
      "house": 3830,
      "eces": 3831,
      "Ġchance": 3832,
      "nes": 3833,
      "Ġeasier": 3834,
      "Ġshowed": 3835,
      "Ġestablish": 3836,
      "Ġdetails": 3837,
      "ĠAre": 3838,
      "Ġdescribed": 3839,
      "tery": 3840,
      "Ġexec": 3841,
      "Ġvision": 3842,
      "ĠBi": 3843,
      "ĠCommun": 3844,
      "sis": 3845,
      "cember": 3846,
      "Ġmachine": 3847,
      "Ġroot": 3848,
      "Ġeducational": 3849,
      "ĠRed": 3850,
      "areness": 3851,
      "21": 3852,
      "Ġcollabor": 3853,
      "ĠJesus": 3854,
      "Ġdat": 3855,
      "Ġmember": 3856,
      "Ġillust": 3857,
      "Ġforward": 3858,
      "Ġfollowed": 3859,
      "ube": 3860,
      "Ġlesson": 3861,
      "Ġsample": 3862,
      "Ġparent": 3863,
      "fl": 3864,
      "ensity": 3865,
      "Res": 3866,
      "Ġeight": 3867,
      "Ġhair": 3868,
      "lege": 3869,
      "Ġgiving": 3870,
      "Ġson": 3871,
      "Ġelement": 3872,
      "Ġcities": 3873,
      "Ġattract": 3874,
      "Ġcomponents": 3875,
      "Ġreports": 3876,
      "Ġcateg": 3877,
      "Ġletter": 3878,
      "Ġworked": 3879,
      "Ġliterature": 3880,
      "They": 3881,
      "Ġmeasures": 3882,
      "Ġrunning": 3883,
      "aste": 3884,
      "Ġmission": 3885,
      "iples": 3886,
      "Ġearlier": 3887,
      "ida": 3888,
      "amb": 3889,
      "que": 3890,
      "Ġnames": 3891,
      "Ġjud": 3892,
      "Ġfeature": 3893,
      "Ġsuggests": 3894,
      "Ġsequ": 3895,
      "Ġchoice": 3896,
      "Ġcompar": 3897,
      "mitted": 3898,
      "Ġenter": 3899,
      "opy": 3900,
      "ĠCong": 3901,
      "Ġbalance": 3902,
      "Ġnote": 3903,
      "hors": 3904,
      "lim": 3905,
      "iring": 3906,
      "Ġlegal": 3907,
      "Ġmob": 3908,
      "Ġexperts": 3909,
      "Ġchanged": 3910,
      "reet": 3911,
      "otes": 3912,
      "Ġneigh": 3913,
      "ĠVal": 3914,
      "Ġorganization": 3915,
      "Ġcapital": 3916,
      "Ġapplied": 3917,
      "Ġdepression": 3918,
      "All": 3919,
      "Ġformed": 3920,
      "Ġtechnologies": 3921,
      "Ġdetect": 3922,
      "airs": 3923,
      "Ġspeech": 3924,
      "Ġprofessor": 3925,
      "known": 3926,
      "Ġfunctions": 3927,
      "enty": 3928,
      "rief": 3929,
      "Ġmath": 3930,
      "Ġreduced": 3931,
      "Ġder": 3932,
      "Ġexhib": 3933,
      "Ġdisorders": 3934,
      "Ġocean": 3935,
      "Ġabsor": 3936,
      "ovember": 3937,
      "rehens": 3938,
      "Ġallowed": 3939,
      "ĠHigh": 3940,
      "Ġreligious": 3941,
      "ira": 3942,
      "Ġfamous": 3943,
      "ios": 3944,
      "Ġinstruct": 3945,
      "orage": 3946,
      "ĠBo": 3947,
      "ching": 3948,
      "Ġnotes": 3949,
      "Ġoxygen": 3950,
      "Un": 3951,
      "ĠAssociation": 3952,
      "off": 3953,
      "ĠEach": 3954,
      "Ġelectricity": 3955,
      "ĠPeople": 3956,
      "Ġfert": 3957,
      "Ġprice": 3958,
      "Ġoptions": 3959,
      "Ġnothing": 3960,
      "Ġhyp": 3961,
      "ero": 3962,
      "ky": 3963,
      "ocol": 3964,
      "ought": 3965,
      "Ġstrategies": 3966,
      "sec": 3967,
      "Ġevolution": 3968,
      "ĠChinese": 3969,
      "Ġconsumption": 3970,
      "pris": 3971,
      "Ġstrugg": 3972,
      "Ġmedicine": 3973,
      "ĠNASA": 3974,
      "zz": 3975,
      "Ġwalk": 3976,
      "ĠRuss": 3977,
      "Ġresource": 3978,
      "Ġclick": 3979,
      "ĠCom": 3980,
      "erate": 3981,
      "ondon": 3982,
      "ĠSeptember": 3983,
      "rie": 3984,
      "orge": 3985,
      "ĠDuring": 3986,
      "Ġbreast": 3987,
      "Ġlearned": 3988,
      "ĠDNA": 3989,
      "Ġtemperatures": 3990,
      "Ġanx": 3991,
      "Ġstaff": 3992,
      "Ġ2009": 3993,
      "Ġtask": 3994,
      "Ġsitu": 3995,
      "Ġfully": 3996,
      "aled": 3997,
      "Ġopportunities": 3998,
      "iant": 3999,
      "Ġwrong": 4000,
      "ĠSociety": 4001,
      "ĠChildren": 4002,
      "Ġpages": 4003,
      "ologists": 4004,
      "related": 4005,
      "According": 4006,
      "Ġtrade": 4007,
      "ĠInternet": 4008,
      "iate": 4009,
      "Ġlimit": 4010,
      "Ġliqu": 4011,
      "Ġtopics": 4012,
      "Ġfriend": 4013,
      "Ġlung": 4014,
      "Ġiron": 4015,
      "ogle": 4016,
      "Ġexpand": 4017,
      "Ph": 4018,
      "Ġinfections": 4019,
      "Ġdecades": 4020,
      "Ġarchitect": 4021,
      "Ġmax": 4022,
      "ĠPat": 4023,
      "aul": 4024,
      "Ġcommand": 4025,
      "After": 4026,
      "Ġappears": 4027,
      "Ġqual": 4028,
      "Ġsurvey": 4029,
      "Ġevalu": 4030,
      "Ġvirt": 4031,
      "Ġtreated": 4032,
      "Ġdri": 4033,
      "rael": 4034,
      "riculum": 4035,
      "ĠBecause": 4036,
      "Ġmoment": 4037,
      "ĠWeb": 4038,
      "Ġbecoming": 4039,
      "Ġplanning": 4040,
      "Ġeggs": 4041,
      "ares": 4042,
      "ĠJanuary": 4043,
      "Ġinjury": 4044,
      "Ġeffic": 4045,
      "Ġworth": 4046,
      "Ġweak": 4047,
      "Ġgrade": 4048,
      "Ġspect": 4049,
      "Ġboard": 4050,
      "Ġriver": 4051,
      "ctors": 4052,
      "Ġshap": 4053,
      "Ġ22": 4054,
      "Ġreleased": 4055,
      "Ġvo": 4056,
      "ĠTex": 4057,
      "Ġcourt": 4058,
      "Ġeventually": 4059,
      "Ġconvers": 4060,
      "abilities": 4061,
      "Ġvitamin": 4062,
      "Ġbed": 4063,
      "ĠFound": 4064,
      "Ġchallenge": 4065,
      "amic": 4066,
      "Ġhappens": 4067,
      "Here": 4068,
      "inated": 4069,
      "Ġperhaps": 4070,
      "Ġdestro": 4071,
      "Ġpi": 4072,
      "Ġcausing": 4073,
      "Ġgets": 4074,
      "ĠFeb": 4075,
      "Ġmetal": 4076,
      "ĠSince": 4077,
      "ample": 4078,
      "Ġconstruct": 4079,
      "Ġrisks": 4080,
      "Ġmilk": 4081,
      "elines": 4082,
      "edom": 4083,
      "Ġremove": 4084,
      "ux": 4085,
      "Ġfactor": 4086,
      "Ġupd": 4087,
      "Ġpollution": 4088,
      "Our": 4089,
      "ĠHouse": 4090,
      "Ġacqu": 4091,
      "Sh": 4092,
      "ses": 4093,
      "Ġflood": 4094,
      "Ġpapers": 4095,
      "Ġorganic": 4096,
      "Ġstructures": 4097,
      "Ġpoly": 4098,
      "Ġcontext": 4099,
      "emy": 4100,
      "Ġpow": 4101,
      "oma": 4102,
      "Ġstarting": 4103,
      "ĠCollege": 4104,
      "ĠGreen": 4105,
      "Ġrelease": 4106,
      "Ġstore": 4107,
      "ingu": 4108,
      "Ġrot": 4109,
      "Ġchanging": 4110,
      "iding": 4111,
      "Ġutil": 4112,
      "uild": 4113,
      "Ġapply": 4114,
      "ĠProt": 4115,
      "Ġrelatively": 4116,
      "ĠJust": 4117,
      "ĠAut": 4118,
      "ĠTrans": 4119,
      "udd": 4120,
      "ev": 4121,
      "Ġbelief": 4122,
      "Ġmajority": 4123,
      "DA": 4124,
      "phas": 4125,
      "Ġtele": 4126,
      "Ġexisting": 4127,
      "Ġfavor": 4128,
      "Ġrepe": 4129,
      "Ġlaws": 4130,
      "Ġequal": 4131,
      "ĠMod": 4132,
      "Ġdrive": 4133,
      "Ġbuy": 4134,
      "Ġrule": 4135,
      "Ġintroduction": 4136,
      "ĠMich": 4137,
      "ĠBra": 4138,
      "ĠWhy": 4139,
      "Ġforces": 4140,
      "Ġload": 4141,
      "Ġformer": 4142,
      "ĠMuseum": 4143,
      "Ġcontract": 4144,
      "Ġacademic": 4145,
      "Ġchurch": 4146,
      "ĠSim": 4147,
      "Ġexperiment": 4148,
      "Ġtechnique": 4149,
      "Ġfilm": 4150,
      "Ġindustrial": 4151,
      "Ġexcess": 4152,
      "Ġdistance": 4153,
      "Ġhomes": 4154,
      "isl": 4155,
      "Ġfinding": 4156,
      "Ġbelieved": 4157,
      "ĠGovern": 4158,
      "Ġexperiences": 4159,
      "olid": 4160,
      "ĠDon": 4161,
      "Ġgames": 4162,
      "Ġhelping": 4163,
      "Ġoffice": 4164,
      "Ġbodies": 4165,
      "alt": 4166,
      "Ġsolutions": 4167,
      "ĠOctober": 4168,
      "ĠJournal": 4169,
      "Ġgoals": 4170,
      "Ġcapacity": 4171,
      "Ġgeneration": 4172,
      "Ġstim": 4173,
      "RE": 4174,
      "24": 4175,
      "more": 4176,
      "Ġactions": 4177,
      "rows": 4178,
      "ĠBlack": 4179,
      "Ġrat": 4180,
      "merican": 4181,
      "Ġtransfer": 4182,
      "âĢĿ,": 4183,
      "Ġcycle": 4184,
      "Ġfigure": 4185,
      "Ġfather": 4186,
      "Ġtrig": 4187,
      "ĠSpec": 4188,
      "ĠCour": 4189,
      "Ġalternative": 4190,
      "hab": 4191,
      "ĠChurch": 4192,
      "Ġencourage": 4193,
      "Ġmag": 4194,
      "esign": 4195,
      "Ġban": 4196,
      "Ġdefinition": 4197,
      "ruary": 4198,
      "Why": 4199,
      "Ġ#": 4200,
      "ographic": 4201,
      "Ġmo": 4202,
      "Ġseven": 4203,
      "Ġready": 4204,
      "force": 4205,
      "ognitive": 4206,
      "Ġvegetables": 4207,
      "Ġformat": 4208,
      "Ġadult": 4209,
      "Ġchronic": 4210,
      "Ġseeds": 4211,
      "Ġphysic": 4212,
      "Ġregions": 4213,
      "Is": 4214,
      "ifically": 4215,
      "aign": 4216,
      "ees": 4217,
      "Ġpartners": 4218,
      "bed": 4219,
      "urt": 4220,
      "Ġtips": 4221,
      "Ġdangerous": 4222,
      "Ġvaccine": 4223,
      "Ġden": 4224,
      "gra": 4225,
      "Ġburn": 4226,
      "ndrome": 4227,
      "Ġ23": 4228,
      "Ġhighest": 4229,
      "ĠChe": 4230,
      "ogen": 4231,
      "AL": 4232,
      "Ġconservation": 4233,
      "Ġ2016": 4234,
      "Ġbuildings": 4235,
      "Ġcontinued": 4236,
      "antic": 4237,
      "Ġemp": 4238,
      "ĠPublic": 4239,
      "Ġvill": 4240,
      "erved": 4241,
      "Ġbird": 4242,
      "Ġproperly": 4243,
      "Ġfix": 4244,
      "Ġseparate": 4245,
      "Ġsect": 4246,
      "odes": 4247,
      "Ġengineering": 4248,
      "Ġanyone": 4249,
      "Ġbottom": 4250,
      "Ġphilos": 4251,
      "Ġcommercial": 4252,
      "ĠTexas": 4253,
      "Ġstream": 4254,
      "Ġinstance": 4255,
      "encies": 4256,
      "Ġblog": 4257,
      "Ġstatus": 4258,
      "ĠPlan": 4259,
      "ĠChristian": 4260,
      "ĠMary": 4261,
      "Ġcontrast": 4262,
      "Ġpick": 4263,
      "cers": 4264,
      "ĠSch": 4265,
      "Ġexactly": 4266,
      "asts": 4267,
      "Ġdogs": 4268,
      "ST": 4269,
      "men": 4270,
      "Ġtrack": 4271,
      "Ġcitizens": 4272,
      "Ġdirection": 4273,
      "Ġrecy": 4274,
      "ĠProject": 4275,
      "omic": 4276,
      "met": 4277,
      "Ġtour": 4278,
      "ĠLondon": 4279,
      "ĠDecember": 4280,
      "Sp": 4281,
      "Ġfill": 4282,
      "Ġfields": 4283,
      "Ġauthors": 4284,
      "Ġdiscover": 4285,
      "Ġclinical": 4286,
      "Ġmale": 4287,
      "ĠEast": 4288,
      "ĠUnion": 4289,
      "Ġcand": 4290,
      "Ġasse": 4291,
      "ken": 4292,
      "Ġsurgery": 4293,
      "Ġflowers": 4294,
      "Ġrecommended": 4295,
      "Ġconducted": 4296,
      "'ll": 4297,
      "ĠBr": 4298,
      "Ġorganizations": 4299,
      "EM": 4300,
      "icip": 4301,
      "ĠLaw": 4302,
      "Ġfeeling": 4303,
      "Ġwidely": 4304,
      "Ġresistance": 4305,
      "Ġapproximately": 4306,
      "SA": 4307,
      "ager": 4308,
      "Ġcopy": 4309,
      "Ġ193": 4310,
      "Ġhimself": 4311,
      "ĠStudents": 4312,
      "Ġdrop": 4313,
      "Ġaware": 4314,
      "omas": 4315,
      "Ġpassed": 4316,
      "Ġstorm": 4317,
      "Ġheavy": 4318,
      "Ġfrequently": 4319,
      "cking": 4320,
      "Ġ2017": 4321,
      "cont": 4322,
      "Ġalg": 4323,
      "Ġsusp": 4324,
      "ĠFood": 4325,
      "aid": 4326,
      "asks": 4327,
      "ĠFrance": 4328,
      "ĠProfess": 4329,
      "Ġpresented": 4330,
      "Ġsand": 4331,
      "Ġchemicals": 4332,
      "Ġpresence": 4333,
      "Ġdrinking": 4334,
      "Ġlinked": 4335,
      "Ġspot": 4336,
      "bal": 4337,
      "ĠRoman": 4338,
      "22": 4339,
      "imens": 4340,
      "Ġvul": 4341,
      "Ġmeat": 4342,
      "ĠAng": 4343,
      "Ġhousehold": 4344,
      "ĠNovember": 4345,
      "Ġshall": 4346,
      "ĠFin": 4347,
      "Ġdiscussion": 4348,
      "Ġparticipants": 4349,
      "che": 4350,
      "Ġslight": 4351,
      "Ġconnected": 4352,
      "Ġstorage": 4353,
      "Ġrecords": 4354,
      "Ġded": 4355,
      "Ġgave": 4356,
      "ĠCor": 4357,
      "acters": 4358,
      "Ġdegrees": 4359,
      "ĠGermany": 4360,
      "ament": 4361,
      "Ġyellow": 4362,
      "Ġpresident": 4363,
      "Ġestimated": 4364,
      "Ġimmediately": 4365,
      "Ġpieces": 4366,
      "ĠSpanish": 4367,
      "ructure": 4368,
      "Ġassessment": 4369,
      "Ġoccup": 4370,
      "ocr": 4371,
      "works": 4372,
      "Ġincome": 4373,
      "Ġspirit": 4374,
      "Ġconstit": 4375,
      "Ġatmosphere": 4376,
      "cular": 4377,
      "ĠSpace": 4378,
      "Ġmut": 4379,
      "Ġves": 4380,
      "Ġsetting": 4381,
      "rest": 4382,
      "onds": 4383,
      "orial": 4384,
      "Ġurban": 4385,
      "Ġhelped": 4386,
      "Ġreducing": 4387,
      "Ġactual": 4388,
      "raction": 4389,
      "ĠOver": 4390,
      "ĠTheir": 4391,
      "Ġdyn": 4392,
      "Ġmathemat": 4393,
      "Ġ...": 4394,
      "Ġ2008": 4395,
      "Ġlayer": 4396,
      "Ġserve": 4397,
      "Ġinflamm": 4398,
      "Ġinterested": 4399,
      "Ġnuclear": 4400,
      "order": 4401,
      "Ġmoved": 4402,
      "Ġrequirements": 4403,
      "Ġprofession": 4404,
      "ternal": 4405,
      "Ġtum": 4406,
      "ĠCoun": 4407,
      "Ġvary": 4408,
      "ĠOb": 4409,
      "70": 4410,
      "othes": 4411,
      "ĠOnce": 4412,
      "ĠIsrael": 4413,
      "ĠLet": 4414,
      "Ġsignificantly": 4415,
      "Many": 4416,
      "Ġcore": 4417,
      "Ġfine": 4418,
      "However": 4419,
      "Ġprepar": 4420,
      "ĠArch": 4421,
      "Ġpopulations": 4422,
      "raw": 4423,
      "Ġtrou": 4424,
      "uses": 4425,
      "Ġarticles": 4426,
      "Ġdefined": 4427,
      "Ġpul": 4428,
      "asive": 4429,
      "ĠPol": 4430,
      "osystem": 4431,
      "Ġamounts": 4432,
      "zing": 4433,
      "Ġdecisions": 4434,
      "Ġexpert": 4435,
      "Ġwanted": 4436,
      "More": 4437,
      "aint": 4438,
      "Ġperspect": 4439,
      "That": 4440,
      "Ġreference": 4441,
      "iance": 4442,
      "Ġhorm": 4443,
      "ession": 4444,
      "Ġplat": 4445,
      "Ġmessage": 4446,
      "anging": 4447,
      "Ġ80": 4448,
      "Ġmotor": 4449,
      "Ġemphas": 4450,
      "Ġwet": 4451,
      "Ġdivid": 4452,
      "board": 4453,
      "Ġlooks": 4454,
      "Ġiniti": 4455,
      "Ġhom": 4456,
      "chers": 4457,
      "ortunately": 4458,
      "90": 4459,
      "Ġpeace": 4460,
      "wards": 4461,
      "Ġreplace": 4462,
      "Ġdownload": 4463,
      "Ar": 4464,
      "Im": 4465,
      "ping": 4466,
      ");": 4467,
      "Ġcovered": 4468,
      "ags": 4469,
      "Ġcomprehens": 4470,
      "Ġthick": 4471,
      "Ġadvanced": 4472,
      "Ġlandsc": 4473,
      "Ġannual": 4474,
      "Ġintroduced": 4475,
      "Ġbeautiful": 4476,
      "Ġhit": 4477,
      "Ġintellig": 4478,
      "Ġcombination": 4479,
      "Ġemotional": 4480,
      "Ġawareness": 4481,
      "Ġadapt": 4482,
      "ophy": 4483,
      "ĠWrit": 4484,
      "ĠNet": 4485,
      "Ġcharacters": 4486,
      "pping": 4487,
      "Ġforeign": 4488,
      "Ġinvent": 4489,
      "ĠService": 4490,
      "Ġsong": 4491,
      "co": 4492,
      "Ġdram": 4493,
      "char": 4494,
      "AM": 4495,
      "Ġradiation": 4496,
      "cious": 4497,
      "ĠPhil": 4498,
      "Ġdescribe": 4499,
      "Ġexposed": 4500,
      "Ġconcepts": 4501,
      "Ġthr": 4502,
      "Ġtreatments": 4503,
      "name": 4504,
      "Ġreality": 4505,
      "change": 4506,
      "Ġpal": 4507,
      "isation": 4508,
      "Ġlived": 4509,
      "ulf": 4510,
      "Ġcarried": 4511,
      "Ġfailure": 4512,
      "Ġfarmers": 4513,
      "Ġclasses": 4514,
      "Ġremoved": 4515,
      "ĠGeneral": 4516,
      "Ġbound": 4517,
      "Ad": 4518,
      "umn": 4519,
      "Ġgenes": 4520,
      "asion": 4521,
      "rant": 4522,
      "'ve": 4523,
      "Ġ26": 4524,
      "Ġexcell": 4525,
      "Ġnumerous": 4526,
      "hetic": 4527,
      "ĠIsland": 4528,
      "Ġlatest": 4529,
      "tical": 4530,
      "ĠCur": 4531,
      "atically": 4532,
      "Ġgender": 4533,
      "Ġobserved": 4534,
      "Ġinvolves": 4535,
      "ĠDec": 4536,
      "Ġmostly": 4537,
      "Ġscen": 4538,
      "Ġdivers": 4539,
      "Ġincorpor": 4540,
      "Ġcalc": 4541,
      "ĠAv": 4542,
      "Ġopin": 4543,
      "Ġmanage": 4544,
      "Ġfol": 4545,
      "key": 4546,
      "Ġisland": 4547,
      "ĠST": 4548,
      "Ġhearing": 4549,
      "Ġdie": 4550,
      "road": 4551,
      "Ġtrust": 4552,
      "Ġvessel": 4553,
      "Ġreprodu": 4554,
      "Ġlessons": 4555,
      "Ġaffects": 4556,
      "Ġaspects": 4557,
      "ĠCongress": 4558,
      "Ġviolence": 4559,
      "ĠMat": 4560,
      "Ġround": 4561,
      "rupt": 4562,
      "Ġbackground": 4563,
      "Ġvolunt": 4564,
      "Ġprefer": 4565,
      "Ġ195": 4566,
      "Ġexperienced": 4567,
      "Ġrelationships": 4568,
      "Ġradio": 4569,
      "icial": 4570,
      "Ġanxiety": 4571,
      "23": 4572,
      "rab": 4573,
      "Ġgene": 4574,
      "Ġmuscles": 4575,
      "Ġhop": 4576,
      "Ġdepending": 4577,
      "oxide": 4578,
      "Ġconnection": 4579,
      "rum": 4580,
      "iment": 4581,
      "Ġgrass": 4582,
      "ĠMexico": 4583,
      "Ġfoss": 4584,
      "Ġhour": 4585,
      "Ġexplains": 4586,
      "Ġjobs": 4587,
      "ĠInter": 4588,
      "ĠDise": 4589,
      "Ġjour": 4590,
      "Ġconflict": 4591,
      "Ġeffectively": 4592,
      "Ġdatab": 4593,
      "Ġcook": 4594,
      "ĠWestern": 4595,
      "Ġsolid": 4596,
      "Ġinternet": 4597,
      "Ġprint": 4598,
      "ĠPhys": 4599,
      "Ġtrend": 4600,
      "Ġupper": 4601,
      "roph": 4602,
      "ĠPress": 4603,
      "resp": 4604,
      "Ġjoint": 4605,
      "Ġcoal": 4606,
      "Ġperformed": 4607,
      "HE": 4608,
      "wood": 4609,
      "Ġsquare": 4610,
      "Now": 4611,
      "Ġpip": 4612,
      "ĠJewish": 4613,
      "Ġsac": 4614,
      "New": 4615,
      "Ġsexual": 4616,
      "Ġ70": 4617,
      "Ġreaction": 4618,
      "Ġcris": 4619,
      "Ġmel": 4620,
      "Ġsav": 4621,
      "Ġcredit": 4622,
      "Ġkilled": 4623,
      "ieties": 4624,
      "igen": 4625,
      "Ġappe": 4626,
      "ĠMars": 4627,
      "Ġvulner": 4628,
      "Ġresulting": 4629,
      "ĠRel": 4630,
      "Ġclos": 4631,
      "Ġadvice": 4632,
      "à¤": 4633,
      "ĠSun": 4634,
      "Ġsynt": 4635,
      "unction": 4636,
      "ĠUN": 4637,
      "ressive": 4638,
      "porary": 4639,
      "Ġdiagnosis": 4640,
      "ped": 4641,
      "Ġfacts": 4642,
      "Ġhabitat": 4643,
      "rete": 4644,
      "Although": 4645,
      "mark": 4646,
      "Ġ28": 4647,
      "Ġphen": 4648,
      "Ġnotice": 4649,
      "Ġnutrients": 4650,
      "Ġseed": 4651,
      "Ġpret": 4652,
      "ĠDavid": 4653,
      "ingly": 4654,
      "place": 4655,
      "PS": 4656,
      "Ġbattle": 4657,
      "Ġconsult": 4658,
      "Ġassum": 4659,
      "Ġ2007": 4660,
      "ĠFebruary": 4661,
      "uable": 4662,
      "isher": 4663,
      "Ġconcl": 4664,
      "ribe": 4665,
      "ias": 4666,
      "Ġinfluen": 4667,
      "OS": 4668,
      "ĠNews": 4669,
      "ĠMedicine": 4670,
      "\",": 4671,
      "Ġelimin": 4672,
      "ĠUnder": 4673,
      "Ġbegins": 4674,
      "Â°": 4675,
      "Ġoption": 4676,
      "ocal": 4677,
      "Ġsustainable": 4678,
      "Ġallerg": 4679,
      "Ġmanufacture": 4680,
      "Ġturned": 4681,
      "ĠEvery": 4682,
      "Ġspent": 4683,
      "do": 4684,
      "ĠJames": 4685,
      "Ġarm": 4686,
      "ĠLearning": 4687,
      "ously": 4688,
      "Ġcharacteristics": 4689,
      "la": 4690,
      "ĠHel": 4691,
      "Ġmist": 4692,
      "roke": 4693,
      "Ġ2018": 4694,
      "ĠDevelopment": 4695,
      "mat": 4696,
      "ĠRem": 4697,
      "Ġther": 4698,
      "Most": 4699,
      "Ġpresc": 4700,
      "Ġleads": 4701,
      "ĠAir": 4702,
      "olved": 4703,
      "Ġlanguages": 4704,
      "ĠFlor": 4705,
      "Ġadjust": 4706,
      "ET": 4707,
      "Ġign": 4708,
      "Ġsalt": 4709,
      "mary": 4710,
      "ĠOff": 4711,
      "Ġpromote": 4712,
      "ilit": 4713,
      "Ġcompleted": 4714,
      "Ġlose": 4715,
      "ferences": 4716,
      "Ġaren": 4717,
      "Ġefficiency": 4718,
      "Ġ90": 4719,
      "oted": 4720,
      "Ġwonder": 4721,
      "tes": 4722,
      "ĠMa": 4723,
      "urance": 4724,
      "Ġagg": 4725,
      "Ġcounter": 4726,
      "Ġshowing": 4727,
      "Ġindependent": 4728,
      "II": 4729,
      "mal": 4730,
      "Ġcampaign": 4731,
      "Ġconfirm": 4732,
      "Ġdestroy": 4733,
      "Ġprocessing": 4734,
      "Ġfing": 4735,
      "Ġvital": 4736,
      "Ġletters": 4737,
      "Ġcurriculum": 4738,
      "Ġheard": 4739,
      "Ġkept": 4740,
      "Ġvolume": 4741,
      "ĠOrgan": 4742,
      "Ġspend": 4743,
      "Ġprocedure": 4744,
      "Ġoutput": 4745,
      "EC": 4746,
      "Ġbright": 4747,
      "Ġdrink": 4748,
      "Ġinitial": 4749,
      "Ġju": 4750,
      "Ġinternal": 4751,
      "Ġfro": 4752,
      "ĠFore": 4753,
      "Ġcontinues": 4754,
      "Ġdoll": 4755,
      "Ġimpacts": 4756,
      "Ġoral": 4757,
      "Ġunf": 4758,
      "Ġdirector": 4759,
      "ĠGoogle": 4760,
      "aturally": 4761,
      "Ġcomfort": 4762,
      "Ġphone": 4763,
      "ĠJapanese": 4764,
      "Ġelectrical": 4765,
      "Ġdiss": 4766,
      "Ġconcerns": 4767,
      "Ġsounds": 4768,
      "Ġ190": 4769,
      "Ġ186": 4770,
      "Ġreferred": 4771,
      "Ġliquid": 4772,
      "Ġclearly": 4773,
      "ĠLatin": 4774,
      "tered": 4775,
      "Ġaid": 4776,
      "Ġnorthern": 4777,
      "Ġadvantage": 4778,
      "gypt": 4779,
      "Ġyouth": 4780,
      "rates": 4781,
      "ago": 4782,
      "Ġtoxic": 4783,
      "Ġlinks": 4784,
      "Ġ27": 4785,
      "ĠIS": 4786,
      "Ġtraffic": 4787,
      "Ġtransform": 4788,
      "down": 4789,
      "Ġprinciples": 4790,
      "acing": 4791,
      "ĠEnergy": 4792,
      "Ġcreation": 4793,
      "Ġoperations": 4794,
      "Ġvictim": 4795,
      "ressed": 4796,
      "Ġdesp": 4797,
      "Ġkeeping": 4798,
      "win": 4799,
      "Ġgirls": 4800,
      "acific": 4801,
      "Ġfocused": 4802,
      "col": 4803,
      "Ġsouthern": 4804,
      "Ġmeeting": 4805,
      "Ġfaster": 4806,
      "Ġserved": 4807,
      "Ġinput": 4808,
      "Ġrace": 4809,
      "ams": 4810,
      "uit": 4811,
      "ĠMount": 4812,
      "Ġfruits": 4813,
      "Ġvehicle": 4814,
      "ĠFoundation": 4815,
      "ĠMor": 4816,
      "Ġclim": 4817,
      "Ġunivers": 4818,
      "irect": 4819,
      "Ġdistribution": 4820,
      "Con": 4821,
      "Ġprepared": 4822,
      "ĠTechnology": 4823,
      "Ġecosystem": 4824,
      "itage": 4825,
      "iverse": 4826,
      "Ġesc": 4827,
      "From": 4828,
      "ĠAD": 4829,
      "Ġgrant": 4830,
      "vision": 4831,
      "Ġfiles": 4832,
      "Dr": 4833,
      "Ġsnow": 4834,
      "ĠMake": 4835,
      "cling": 4836,
      "ĠMedical": 4837,
      "amental": 4838,
      "Ġlegisl": 4839,
      "Ġfreedom": 4840,
      "Ġdistinct": 4841,
      "Ġowners": 4842,
      "Ġallowing": 4843,
      "ictionary": 4844,
      "Ġrenew": 4845,
      "iveness": 4846,
      "ishing": 4847,
      "Ġdecided": 4848,
      "Ġparticles": 4849,
      "Ġsem": 4850,
      "Ġsort": 4851,
      "Ġkinds": 4852,
      "Ġsend": 4853,
      "Ġdigest": 4854,
      "Ġpark": 4855,
      "Ġsurrounding": 4856,
      "Ġinvolve": 4857,
      "Ġple": 4858,
      "Ġhelpful": 4859,
      "ears": 4860,
      "Ġ2000": 4861,
      "Ġpreviously": 4862,
      "Ġstem": 4863,
      "Ġimproved": 4864,
      "Ġplatform": 4865,
      "AD": 4866,
      "part": 4867,
      "Ġcareer": 4868,
      "Ġpolicies": 4869,
      "ĠCivil": 4870,
      "bert": 4871,
      "Ġtaught": 4872,
      "Ġcontribute": 4873,
      "Ġconcern": 4874,
      "Ġwear": 4875,
      "olester": 4876,
      "Ġdoub": 4877,
      "Ġbrief": 4878,
      "iling": 4879,
      "Ġsmart": 4880,
      "ball": 4881,
      "iology": 4882,
      "Ġastron": 4883,
      "Ġdro": 4884,
      "Ġlov": 4885,
      "ĠIts": 4886,
      "Ġnoted": 4887,
      "Ġrelevant": 4888,
      "Ġgar": 4889,
      "eline": 4890,
      "unk": 4891,
      "Ġroll": 4892,
      "Cl": 4893,
      "ded": 4894,
      "verty": 4895,
      "ĠEngine": 4896,
      "ĠVirgin": 4897,
      "uration": 4898,
      "ĠTest": 4899,
      "Ġord": 4900,
      "Ġpaint": 4901,
      "uing": 4902,
      "Ġdental": 4903,
      "Ġpoverty": 4904,
      "Ġemergency": 4905,
      "ĠAcad": 4906,
      "Ġdiscovery": 4907,
      "ĠAsia": 4908,
      "Ġstraight": 4909,
      "Pl": 4910,
      "Ġnerv": 4911,
      "Ġhospital": 4912,
      "OT": 4913,
      "Ġsurpris": 4914,
      "Ġwildlife": 4915,
      "Ġcrops": 4916,
      "za": 4917,
      "ĠHuman": 4918,
      "Ġcars": 4919,
      "Ġcere": 4920,
      "Ġstars": 4921,
      "ails": 4922,
      "ĠBay": 4923,
      "Ġsamples": 4924,
      "ĠPal": 4925,
      "eria": 4926,
      "onic": 4927,
      "ĠHIV": 4928,
      "Ġparty": 4929,
      "Ġmotiv": 4930,
      "olesterol": 4931,
      "rep": 4932,
      "Ġmeant": 4933,
      "Ġnutrition": 4934,
      "earchers": 4935,
      "standing": 4936,
      "ij": 4937,
      "ormal": 4938,
      "Ġconclud": 4939,
      "ĠBas": 4940,
      "oting": 4941,
      "Ġseek": 4942,
      "Ġcognitive": 4943,
      "Ġcolors": 4944,
      "Ġgrown": 4945,
      "Ġdeaths": 4946,
      "Do": 4947,
      "ĠCouncil": 4948,
      "Ġpric": 4949,
      "ĠPort": 4950,
      "Ġplaying": 4951,
      "esity": 4952,
      "Ġpig": 4953,
      "Ġship": 4954,
      "Ġinfected": 4955,
      "Ġminor": 4956,
      "Ġsaying": 4957,
      "ĠGeorge": 4958,
      "Ġattacks": 4959,
      "Ġtechnical": 4960,
      "Ġpictures": 4961,
      "Te": 4962,
      "Ġonto": 4963,
      "umber": 4964,
      "Ġconsequences": 4965,
      "Ġtruth": 4966,
      "Ġformation": 4967,
      "Ġbrown": 4968,
      "ĠSk": 4969,
      "Ġbud": 4970,
      "enth": 4971,
      "ĠWhite": 4972,
      "Ġstation": 4973,
      "Ġregarding": 4974,
      "Ġdefic": 4975,
      "Ġmoist": 4976,
      "roup": 4977,
      "rations": 4978,
      "ificial": 4979,
      "ĠBel": 4980,
      "Ġsituations": 4981,
      "Ġcomment": 4982,
      "cast": 4983,
      "ado": 4984,
      "Ġliver": 4985,
      "Ġcolleag": 4986,
      "otic": 4987,
      "Ġfamiliar": 4988,
      "Ġtitle": 4989,
      "Ġhaz": 4990,
      "Ġcoord": 4991,
      "Ġargument": 4992,
      "Ġdouble": 4993,
      "ek": 4994,
      "Ġflex": 4995,
      "ĠWild": 4996,
      "ointed": 4997,
      "Ġsatell": 4998,
      "Ġexcellent": 4999,
      "Ġshar": 5000,
      "Us": 5001,
      "Ġannoun": 5002,
      "Ġwaters": 5003,
      "DF": 5004,
      "Ġshared": 5005,
      "riage": 5006,
      "ifying": 5007,
      "Ġrecorded": 5008,
      "ault": 5009,
      "arrow": 5010,
      "ĠGreek": 5011,
      "Ġstrategy": 5012,
      "Ġgal": 5013,
      "ĠRepublic": 5014,
      "Ġfaith": 5015,
      "Ġbank": 5016,
      "osite": 5017,
      "Ġsyndrome": 5018,
      "Ġhundreds": 5019,
      "99": 5020,
      "ĠSocial": 5021,
      "26": 5022,
      "Ab": 5023,
      "inate": 5024,
      "Ġofficial": 5025,
      "Ġsignal": 5026,
      "Ġkil": 5027,
      "atric": 5028,
      "Ġmaster": 5029,
      "aughter": 5030,
      "Ġmotion": 5031,
      "ĠToday": 5032,
      "iced": 5033,
      "mas": 5034,
      "Ġwest": 5035,
      "ĠVol": 5036,
      "comes": 5037,
      "Ġdetermined": 5038,
      "Ġlic": 5039,
      "ĠRober": 5040,
      "Ġbelong": 5041,
      "Ġfr": 5042,
      "Ġphr": 5043,
      "ĠIr": 5044,
      "ĠMiss": 5045,
      "Ġmillions": 5046,
      "osa": 5047,
      "Ġisol": 5048,
      "ĠMark": 5049,
      "ometimes": 5050,
      "rastructure": 5051,
      "Ġheight": 5052,
      "Ġgum": 5053,
      "Ġsen": 5054,
      "itors": 5055,
      "Ġsubjects": 5056,
      "Ġpun": 5057,
      "oughly": 5058,
      "Ġroots": 5059,
      "Ġmainly": 5060,
      "ĠSee": 5061,
      "Ġpotentially": 5062,
      "Ġwealth": 5063,
      "Ġdiam": 5064,
      "ĠUsing": 5065,
      "yro": 5066,
      "ĠOld": 5067,
      "oke": 5068,
      "Ġobvious": 5069,
      "Ġcardi": 5070,
      "ĠFlorida": 5071,
      "Ġreduction": 5072,
      "Ġaccurate": 5073,
      "Ġcombined": 5074,
      "akers": 5075,
      "Ġperman": 5076,
      "ributed": 5077,
      "ĠDi": 5078,
      "west": 5079,
      "ey": 5080,
      "well": 5081,
      "Ġcoin": 5082,
      "Ġnit": 5083,
      "Ġtested": 5084,
      "Ġextensive": 5085,
      "Ġages": 5086,
      "Ġinjuries": 5087,
      "itz": 5088,
      "BC": 5089,
      "Ġreb": 5090,
      "ĠDist": 5091,
      "Ġcertainly": 5092,
      "Ġthoughts": 5093,
      "Ġintended": 5094,
      "Sc": 5095,
      "Ġmoon": 5096,
      "ĠElect": 5097,
      "ĠSub": 5098,
      "Ġrub": 5099,
      "ĠClass": 5100,
      "Ġlifest": 5101,
      "Ġnaturally": 5102,
      "Ġsuffering": 5103,
      "ĠEgypt": 5104,
      "27": 5105,
      "rapy": 5106,
      "Ġnan": 5107,
      "alled": 5108,
      "Ġpregnancy": 5109,
      "Ġlib": 5110,
      "ĠLa": 5111,
      "DC": 5112,
      "gl": 5113,
      "Ġconver": 5114,
      "anes": 5115,
      "with": 5116,
      "Ġaf": 5117,
      "ixt": 5118,
      "Ġpu": 5119,
      "vis": 5120,
      "Ġadding": 5121,
      "Ġdriving": 5122,
      "going": 5123,
      "Ġvast": 5124,
      "Ġsuffer": 5125,
      "Ġfluid": 5126,
      "Ġcast": 5127,
      "Ġdoctors": 5128,
      "ĠInformation": 5129,
      "astern": 5130,
      "Ġdetailed": 5131,
      "Ġharmful": 5132,
      "ishes": 5133,
      "ĠQue": 5134,
      "Ġquar": 5135,
      "ancing": 5136,
      "Ġhyper": 5137,
      "Ġcollected": 5138,
      "Ġâ": 5139,
      "Ġ2020": 5140,
      "ception": 5141,
      "Ġterrit": 5142,
      "Ġingred": 5143,
      "ander": 5144,
      "Ġphase": 5145,
      "Ġwarming": 5146,
      "Ġprevention": 5147,
      "ĠCath": 5148,
      "ĠRich": 5149,
      "ĠSy": 5150,
      "Ġcomputers": 5151,
      "Ġcouple": 5152,
      "Ġphotos": 5153,
      "Ġpurposes": 5154,
      "Ġpump": 5155,
      "tee": 5156,
      "Re": 5157,
      "No": 5158,
      "cel": 5159,
      "Ġmedications": 5160,
      "bing": 5161,
      "Ġtasks": 5162,
      "Ġbones": 5163,
      "adian": 5164,
      "Ġpractical": 5165,
      "Ġinches": 5166,
      "ĠPacific": 5167,
      "Ġ2006": 5168,
      "ĠLibrary": 5169,
      "Ġshel": 5170,
      "Ġprotected": 5171,
      "Ġantibiot": 5172,
      "Ġthin": 5173,
      "Ġstret": 5174,
      "Ġideal": 5175,
      "Ġcircum": 5176,
      "pen": 5177,
      "Ġmorning": 5178,
      "gs": 5179,
      "Ġunits": 5180,
      "Ġexplained": 5181,
      "rich": 5182,
      "ĠMal": 5183,
      "ii": 5184,
      "Ġfort": 5185,
      "Ġofficials": 5186,
      "Ġmonitoring": 5187,
      "EL": 5188,
      "Ġstone": 5189,
      "istant": 5190,
      "Ġstudied": 5191,
      "ĠAtl": 5192,
      "which": 5193,
      "Ġoperating": 5194,
      "Ġvoice": 5195,
      "ĠProfessor": 5196,
      "fall": 5197,
      "othing": 5198,
      "ĠTherefore": 5199,
      "Ġfinally": 5200,
      "ĠMass": 5201,
      "volution": 5202,
      "Ġhappened": 5203,
      "Read": 5204,
      "Ġwire": 5205,
      "Ġabuse": 5206,
      "Stud": 5207,
      "ĠFranc": 5208,
      "AP": 5209,
      "icks": 5210,
      "ĠLou": 5211,
      "Ġsche": 5212,
      "Ġanswers": 5213,
      "ĠGet": 5214,
      "uted": 5215,
      "Ġplayed": 5216,
      "oto": 5217,
      "Ġraised": 5218,
      "Ġtypical": 5219,
      "Ġsick": 5220,
      "rolog": 5221,
      "ĠFam": 5222,
      "Ġinstruction": 5223,
      "28": 5224,
      "free": 5225,
      "Ġnarr": 5226,
      "active": 5227,
      "fered": 5228,
      "Ġpoet": 5229,
      "Ġtalking": 5230,
      "ĠBritain": 5231,
      "Ġprepare": 5232,
      "ya": 5233,
      "ĠWind": 5234,
      "Ġlooked": 5235,
      "oyal": 5236,
      "Ġchapter": 5237,
      "itc": 5238,
      "ĠEss": 5239,
      "Ġperiods": 5240,
      "Ġvaluable": 5241,
      "ipped": 5242,
      "Ġcholesterol": 5243,
      "ĠDem": 5244,
      "ĠDef": 5245,
      "Ġoperation": 5246,
      "ĠScient": 5247,
      "och": 5248,
      "ĠJer": 5249,
      "Ġsyn": 5250,
      "Ġstudying": 5251,
      "Ġflat": 5252,
      "Ġexplan": 5253,
      "Ġrevolution": 5254,
      "ava": 5255,
      "enses": 5256,
      "Ġfeelings": 5257,
      "aser": 5258,
      "eck": 5259,
      "Ġfertil": 5260,
      "ota": 5261,
      "Ġspecifically": 5262,
      "Ġimmun": 5263,
      "Ġproteins": 5264,
      "gu": 5265,
      "Ġreached": 5266,
      "ĠLife": 5267,
      "Ġinsects": 5268,
      "ĠEnvironmental": 5269,
      "ĠLake": 5270,
      "Ġrefers": 5271,
      "Ġcreative": 5272,
      "Ġinflammation": 5273,
      "aks": 5274,
      "Ġcharge": 5275,
      "Ġadvance": 5276,
      "Ġworldwide": 5277,
      "Ġsupported": 5278,
      "Ġleader": 5279,
      "Ġgod": 5280,
      "oric": 5281,
      "Ġconv": 5282,
      "resents": 5283,
      "Ġdeliver": 5284,
      "CC": 5285,
      "Ġtiny": 5286,
      "Ġidentity": 5287,
      "burg": 5288,
      "Ġindicate": 5289,
      "Ġsurvive": 5290,
      "ros": 5291,
      "ĠCle": 5292,
      "Ġnormally": 5293,
      "anguage": 5294,
      "osen": 5295,
      "rier": 5296,
      "ĠOut": 5297,
      "flow": 5298,
      "Ġnav": 5299,
      "imer": 5300,
      "ĠExpl": 5301,
      "Ġmanner": 5302,
      "Ġslightly": 5303,
      "gal": 5304,
      "35": 5305,
      "pat": 5306,
      "erals": 5307,
      "ael": 5308,
      "Ġmetab": 5309,
      "ventional": 5310,
      "Ġprimarily": 5311,
      "Ġlots": 5312,
      "Ġregularly": 5313,
      "rid": 5314,
      "ĠCentral": 5315,
      "Ġwestern": 5316,
      "iled": 5317,
      "agraph": 5318,
      "Ġresponsibility": 5319,
      "ĠCarol": 5320,
      "29": 5321,
      "Ġthesis": 5322,
      "Ġcert": 5323,
      "Ġrul": 5324,
      "Ġmedication": 5325,
      "ompl": 5326,
      "Ġharvest": 5327,
      "Ġmentioned": 5328,
      "eters": 5329,
      "inding": 5330,
      "Ġreaders": 5331,
      "Ġreligion": 5332,
      "roc": 5333,
      "Ġmassive": 5334,
      "Ġinterpret": 5335,
      "ĠGovernment": 5336,
      "Ġcrisis": 5337,
      "ĠHol": 5338,
      "Ġmobile": 5339,
      "Ġfloor": 5340,
      "nic": 5341,
      "Ġcenturies": 5342,
      "ĠSer": 5343,
      "Ġleaf": 5344,
      "ĠRet": 5345,
      "Ġvisible": 5346,
      "ascular": 5347,
      "US": 5348,
      "what": 5349,
      "abul": 5350,
      "Ġphenomen": 5351,
      "Ġtouch": 5352,
      "Ġresidents": 5353,
      "espite": 5354,
      "Ġperspective": 5355,
      "aker": 5356,
      "Ġcolour": 5357,
      "Ġboost": 5358,
      "ĠControl": 5359,
      "oom": 5360,
      "Ġmamm": 5361,
      "ĠHen": 5362,
      "ĠJe": 5363,
      "Ġsolve": 5364,
      "Ġ2005": 5365,
      "Ġsweet": 5366,
      "ĠPaul": 5367,
      "Ġhealthcare": 5368,
      "Ġmarine": 5369,
      "Ġdocuments": 5370,
      "Ġdespite": 5371,
      "Ġsubstance": 5372,
      "osc": 5373,
      "Ġmeasured": 5374,
      "Ġlibrary": 5375,
      "45": 5376,
      "Ġoffered": 5377,
      "Ġoccurred": 5378,
      "cules": 5379,
      "Ġworkshe": 5380,
      "ossible": 5381,
      "Ġrapidly": 5382,
      "Ġneut": 5383,
      "celer": 5384,
      "Ġflight": 5385,
      "Ġpush": 5386,
      "Ġexpression": 5387,
      "Ġvehicles": 5388,
      "ĠData": 5389,
      "Ġincreasingly": 5390,
      "ĠMart": 5391,
      "Ġinfrastructure": 5392,
      "Ġinstrument": 5393,
      "lers": 5394,
      "Ġlargely": 5395,
      "ĠNature": 5396,
      "ensus": 5397,
      "Ġdust": 5398,
      "Ġcompare": 5399,
      "ĠThomas": 5400,
      "ston": 5401,
      "Ġexpensive": 5402,
      "Ġdivided": 5403,
      "Other": 5404,
      "utive": 5405,
      "Ġkm": 5406,
      "Ġraise": 5407,
      "van": 5408,
      "Ġfacilities": 5409,
      "Ġsmoking": 5410,
      "nam": 5411,
      "iest": 5412,
      "Ġdepth": 5413,
      "Ġsentence": 5414,
      "Ġchoices": 5415,
      "Ġdecrease": 5416,
      "Ġgreatest": 5417,
      "oper": 5418,
      "Ġagricultural": 5419,
      "Ġbiological": 5420,
      "inent": 5421,
      "ena": 5422,
      "berg": 5423,
      "mp": 5424,
      "umin": 5425,
      "Ġcloud": 5426,
      "ht": 5427,
      "ĠTur": 5428,
      "Ġcatch": 5429,
      "olars": 5430,
      "being": 5431,
      "Ġspl": 5432,
      "Ġ29": 5433,
      "Ġrepresents": 5434,
      "Ġsecret": 5435,
      "Ġrecognize": 5436,
      "Ġcomponent": 5437,
      "tion": 5438,
      "Ġguidelines": 5439,
      "RI": 5440,
      "Ġuniversity": 5441,
      "rans": 5442,
      "Ġminimum": 5443,
      "Ġclosely": 5444,
      "500": 5445,
      "ĠFree": 5446,
      "Ġintake": 5447,
      "Ġrequest": 5448,
      "state": 5449,
      "?âĢĿ": 5450,
      "des": 5451,
      "Ġsector": 5452,
      "ville": 5453,
      "Ġlabel": 5454,
      "Ġtun": 5455,
      "ĠMac": 5456,
      "Ġproposed": 5457,
      "Ġcrucial": 5458,
      "Ġfelt": 5459,
      "anges": 5460,
      "Ġwalls": 5461,
      "ĠMem": 5462,
      "Ġtrial": 5463,
      "field": 5464,
      "Ġhappy": 5465,
      "Ġbusinesses": 5466,
      "asp": 5467,
      "ĠSal": 5468,
      "Ġsensitive": 5469,
      "Ġbehaviour": 5470,
      "Ġlik": 5471,
      "Ġkn": 5472,
      "kes": 5473,
      "Ġcontrolled": 5474,
      "Ġphotograph": 5475,
      "Ġera": 5476,
      "Ġglob": 5477,
      "ĠCourt": 5478,
      "Ġdatabase": 5479,
      "Ġnations": 5480,
      "ibl": 5481,
      "Ġforced": 5482,
      "ĠDisc": 5483,
      "Ġgall": 5484,
      "Ġhorse": 5485,
      "Ġstarts": 5486,
      "Ġneighbor": 5487,
      "Ġwel": 5488,
      "Ġmac": 5489,
      "ĠSea": 5490,
      "ĠAbout": 5491,
      "Ġroutine": 5492,
      "Ġbow": 5493,
      "Ġconcerned": 5494,
      "illing": 5495,
      "ING": 5496,
      "omach": 5497,
      "Ġrural": 5498,
      "ĠThus": 5499,
      "Ġfrequency": 5500,
      "Another": 5501,
      "Ġprofessionals": 5502,
      "Ġcolleagues": 5503,
      "Ġdream": 5504,
      "agers": 5505,
      "Ġwriter": 5506,
      "Ġconcentration": 5507,
      "ctic": 5508,
      "CO": 5509,
      "ĠWomen": 5510,
      "Ġfif": 5511,
      "Ġeast": 5512,
      "ropical": 5513,
      "Ġsuggested": 5514,
      "Ġpretty": 5515,
      "Ġapproaches": 5516,
      "athy": 5517,
      "ĠBook": 5518,
      "Ġappearance": 5519,
      "hma": 5520,
      "Ġmuseum": 5521,
      "Ġgenerate": 5522,
      "ĠPost": 5523,
      "ĠBer": 5524,
      "isp": 5525,
      "Ġotherwise": 5526,
      "Ġaccompl": 5527,
      "Ġexperiments": 5528,
      "Ġpil": 5529,
      "ga": 5530,
      "teries": 5531,
      "Ġmort": 5532,
      "ĠLabor": 5533,
      "Ġconsists": 5534,
      "ĠSen": 5535,
      "ĠBoth": 5536,
      "Ġfossil": 5537,
      "ĠDisease": 5538,
      "Ġimproving": 5539,
      "My": 5540,
      "Ġsets": 5541,
      "Ġcontaining": 5542,
      "Ġwaves": 5543,
      "Ġgrand": 5544,
      "100": 5545,
      "net": 5546,
      "Ġdial": 5547,
      "Ġtrain": 5548,
      "Ġcoff": 5549,
      "Ġ35": 5550,
      "Ġcomprehensive": 5551,
      "Ġdiversity": 5552,
      "ca": 5553,
      "ĠCam": 5554,
      "ework": 5555,
      "Ġpull": 5556,
      "Ġadvoc": 5557,
      "Pe": 5558,
      "olute": 5559,
      "Ġlifestyle": 5560,
      "ĠWork": 5561,
      "Ġbrother": 5562,
      "75": 5563,
      "ĠMet": 5564,
      "Ġflav": 5565,
      "Ġinstitutions": 5566,
      "Ġdepends": 5567,
      "ester": 5568,
      "ĠAN": 5569,
      "Ġelev": 5570,
      "Ġwave": 5571,
      "ĠCommission": 5572,
      "long": 5573,
      "ye": 5574,
      "Ġwhom": 5575,
      "ĠLord": 5576,
      "zy": 5577,
      "usive": 5578,
      "Ġchildhood": 5579,
      "Ġplays": 5580,
      "ĠMil": 5581,
      "Ġmedium": 5582,
      "Ġtwice": 5583,
      "Ġextent": 5584,
      "alle": 5585,
      "Ġble": 5586,
      "Ġworse": 5587,
      "Ġsed": 5588,
      "lements": 5589,
      "Ġtraum": 5590,
      "stitution": 5591,
      "Ġexternal": 5592,
      "iated": 5593,
      "Ġfle": 5594,
      "ria": 5595,
      "Ġprogramming": 5596,
      "Ġimmig": 5597,
      "ĠBible": 5598,
      "Ġmolecules": 5599,
      "ĠPower": 5600,
      "Ġemployees": 5601,
      "MS": 5602,
      "Ġ*": 5603,
      "Ġextract": 5604,
      "Ġcontinuous": 5605,
      "Ġproducing": 5606,
      "CS": 5607,
      "Ġbot": 5608,
      "uls": 5609,
      "abric": 5610,
      "Ġrail": 5611,
      "hips": 5612,
      "Ġapart": 5613,
      "Ġsod": 5614,
      "Ġchann": 5615,
      "Ġagriculture": 5616,
      "Ġwalking": 5617,
      "itness": 5618,
      "Ġdent": 5619,
      "Ġreader": 5620,
      "Ġdisapp": 5621,
      "Ġcreates": 5622,
      "Ġ>": 5623,
      "Ġvoc": 5624,
      "ĠVirginia": 5625,
      "Ġlisted": 5626,
      "Ġcamera": 5627,
      "anch": 5628,
      "Ġmer": 5629,
      "Ġgovernments": 5630,
      "word": 5631,
      "Ġelectronic": 5632,
      "RO": 5633,
      "nel": 5634,
      "ĠLand": 5635,
      "Ġdescribes": 5636,
      "Ġoriginally": 5637,
      "Cont": 5638,
      "itter": 5639,
      "olve": 5640,
      "ypes": 5641,
      "Ġleaving": 5642,
      "Ġoutcomes": 5643,
      "Ġrecip": 5644,
      "Ġmaximum": 5645,
      "Ġsimpl": 5646,
      "Ġfunding": 5647,
      "Ġfiber": 5648,
      "Lear": 5649,
      "igation": 5650,
      "ulating": 5651,
      "Ġalt": 5652,
      "ĠDesign": 5653,
      "Ġsurf": 5654,
      "ĠInstead": 5655,
      "Ġlandscape": 5656,
      "ari": 5657,
      "Ġstick": 5658,
      "ĠOcean": 5659,
      "Ġfundamental": 5660,
      "Ġrecognized": 5661,
      "Ġenhance": 5662,
      "Ġwants": 5663,
      "ĠWell": 5664,
      "Ġsettle": 5665,
      "âĢĻ.": 5666,
      "ĠStand": 5667,
      "uilding": 5668,
      "ĠSte": 5669,
      "Ġbeneficial": 5670,
      "ĠClin": 5671,
      "Ġinterview": 5672,
      "De": 5673,
      "ĠConf": 5674,
      "ario": 5675,
      "Ġ<": 5676,
      "ĠRobert": 5677,
      "Ġseg": 5678,
      "Ġfly": 5679,
      "Ġband": 5680,
      "ĠMiddle": 5681,
      "Ġfasc": 5682,
      "Ġobesity": 5683,
      "Ġtal": 5684,
      "leg": 5685,
      "Ġsteel": 5686,
      "Ġhunt": 5687,
      "Ġrecovery": 5688,
      "Ġvolunte": 5689,
      "Ġsides": 5690,
      "ĠSum": 5691,
      "ĠUp": 5692,
      "Ġbiggest": 5693,
      "During": 5694,
      "ĠSam": 5695,
      "Ġproduces": 5696,
      "Ġsecure": 5697,
      "from": 5698,
      "inations": 5699,
      "Ġnurs": 5700,
      "Ġappeared": 5701,
      "Can": 5702,
      "ION": 5703,
      "Ġlaunch": 5704,
      "HO": 5705,
      "vironments": 5706,
      "Ġprices": 5707,
      "Ġfrag": 5708,
      "Ġcourses": 5709,
      "Ġwindow": 5710,
      "ĠTwo": 5711,
      "ĠSl": 5712,
      "ĠAustralian": 5713,
      "acts": 5714,
      "izer": 5715,
      "Ġmice": 5716,
      "Ġholid": 5717,
      "VID": 5718,
      "ndom": 5719,
      "Ġrein": 5720,
      "ĠRights": 5721,
      "ĠVis": 5722,
      "ny": 5723,
      "Ġhero": 5724,
      "Ġmanufacturing": 5725,
      "dden": 5726,
      "Ġcalcium": 5727,
      "Ġnarrow": 5728,
      "Ġtells": 5729,
      "Ġmild": 5730,
      "ĠCare": 5731,
      "Ġdioxide": 5732,
      "ulin": 5733,
      "Ġedge": 5734,
      "idden": 5735,
      "ĠBen": 5736,
      "ĠAnother": 5737,
      "Ġnor": 5738,
      "Ġslowly": 5739,
      "Ġfirm": 5740,
      "Ġamaz": 5741,
      "ĠBur": 5742,
      "Ġcorresp": 5743,
      "Ġcalories": 5744,
      "den": 5745,
      "Ġvent": 5746,
      "CE": 5747,
      "ta": 5748,
      "Ġbreathing": 5749,
      "ĠCap": 5750,
      "Ġrespir": 5751,
      "born": 5752,
      "Ġunlike": 5753,
      "exp": 5754,
      "orith": 5755,
      "Ġfever": 5756,
      "cest": 5757,
      "Ġfilled": 5758,
      "Ġdecade": 5759,
      "Ġdecline": 5760,
      "Ġwww": 5761,
      "stract": 5762,
      "Ġinvestment": 5763,
      "Ġprocedures": 5764,
      "Ġfold": 5765,
      "Ġstomach": 5766,
      "ĠFe": 5767,
      "ĠStudies": 5768,
      "ĠLike": 5769,
      "Ġfollows": 5770,
      "hemical": 5771,
      "stream": 5772,
      "ĠEconom": 5773,
      "Ġvalid": 5774,
      "Ġdrawing": 5775,
      "Ġaudience": 5776,
      "Ġstages": 5777,
      "Ġportion": 5778,
      "Ġsatis": 5779,
      "rian": 5780,
      "Ġ500": 5781,
      "ĠJews": 5782,
      "sey": 5783,
      "Ġremote": 5784,
      "asure": 5785,
      "Ġcats": 5786,
      "Ġinject": 5787,
      "Ġsufficient": 5788,
      "Ġdiverse": 5789,
      "Ġengage": 5790,
      "Ġmit": 5791,
      "Ġdiagnosed": 5792,
      "Ġselected": 5793,
      "ras": 5794,
      "Ġsudden": 5795,
      "ĠHome": 5796,
      "Ġskill": 5797,
      "Ġcapable": 5798,
      "Ġstored": 5799,
      "Ġviews": 5800,
      "Ġsoldiers": 5801,
      "Ġtried": 5802,
      "Ġpossibly": 5803,
      "HD": 5804,
      "Ġlocations": 5805,
      "Ġkidney": 5806,
      "lar": 5807,
      "inating": 5808,
      "33": 5809,
      "Ġtail": 5810,
      "Ġseeing": 5811,
      "ĠMicro": 5812,
      "Ġremind": 5813,
      "Se": 5814,
      "ĠKnow": 5815,
      "Ġremained": 5816,
      "igenous": 5817,
      "phone": 5818,
      "Ġjourney": 5819,
      "Ġcarb": 5820,
      "Ġsheet": 5821,
      "ĠÃ": 5822,
      "inson": 5823,
      "ĠSecond": 5824,
      "ĠCancer": 5825,
      "Ġintelligence": 5826,
      "fish": 5827,
      "ĠArmy": 5828,
      "abulary": 5829,
      "Ġprem": 5830,
      "Since": 5831,
      "hop": 5832,
      "Ġpresentation": 5833,
      "Ġspeaking": 5834,
      "Ind": 5835,
      "Ġsky": 5836,
      "Ġhabits": 5837,
      "Ġsurvival": 5838,
      "stood": 5839,
      "ĠColumb": 5840,
      "ĠTreat": 5841,
      "atever": 5842,
      "Ġjustice": 5843,
      "Ġdedicated": 5844,
      "oul": 5845,
      "ĠBet": 5846,
      "Ġscan": 5847,
      "Ġdiscipl": 5848,
      "ĠKore": 5849,
      "tenance": 5850,
      "ĠManagement": 5851,
      "rants": 5852,
      "Ġcomposition": 5853,
      "Ġoutl": 5854,
      "ects": 5855,
      "band": 5856,
      "Ġrhy": 5857,
      "Ġsharing": 5858,
      "Ġlaun": 5859,
      "ĠIll": 5860,
      "attle": 5861,
      "Ġindex": 5862,
      "ritis": 5863,
      "Ġcontem": 5864,
      "Ġcorpor": 5865,
      "Ġveter": 5866,
      "Ġforests": 5867,
      "ÃŃ": 5868,
      "Ġparagraph": 5869,
      "ĠSciences": 5870,
      "Ġentirely": 5871,
      "Ġbread": 5872,
      "Ġgoods": 5873,
      "Ġnetworks": 5874,
      "Ġgather": 5875,
      "Ġsports": 5876,
      "Ġeveryday": 5877,
      "Ġshell": 5878,
      "Ġrow": 5879,
      "kin": 5880,
      "ona": 5881,
      "Ġsuccessfully": 5882,
      "Ġraw": 5883,
      "Ġcalls": 5884,
      "ĠSupp": 5885,
      "ĠLouis": 5886,
      "Ġtow": 5887,
      "ĠFre": 5888,
      "Ġapprec": 5889,
      "ogue": 5890,
      "reland": 5891,
      "Ġnerve": 5892,
      "Ġconsid": 5893,
      "icking": 5894,
      "ĠGood": 5895,
      "ĠKeep": 5896,
      "Ġhouses": 5897,
      "Ġgalax": 5898,
      "ads": 5899,
      "95": 5900,
      "rors": 5901,
      "istan": 5902,
      "Ġneck": 5903,
      "Ġsight": 5904,
      "Ġthor": 5905,
      "bi": 5906,
      "Ġcommunicate": 5907,
      "aj": 5908,
      "Ġrandom": 5909,
      "normal": 5910,
      "aria": 5911,
      "Ġunus": 5912,
      "Ġmovements": 5913,
      "Ġleadership": 5914,
      "Ġvs": 5915,
      "En": 5916,
      "ĠDel": 5917,
      "ĠOffice": 5918,
      "irus": 5919,
      "Ġteen": 5920,
      "Ġtruly": 5921,
      "alysis": 5922,
      "Ġdin": 5923,
      "Ġenvironments": 5924,
      "Ġfewer": 5925,
      "ĠId": 5926,
      "Ġyounger": 5927,
      "Ġcontamin": 5928,
      "ifies": 5929,
      "Ġshut": 5930,
      "Ġaccomp": 5931,
      "ĠStudy": 5932,
      "writ": 5933,
      "Ġtut": 5934,
      "ĠExt": 5935,
      "Your": 5936,
      "comp": 5937,
      "Ġfigures": 5938,
      "Ġaer": 5939,
      "Ġprecise": 5940,
      "Ġafford": 5941,
      "Ġtro": 5942,
      "Ġhighlight": 5943,
      "icon": 5944,
      "Ġmeal": 5945,
      "Ġgrav": 5946,
      "Ġsubstant": 5947,
      "Ġdecide": 5948,
      "TS": 5949,
      "Ġpoem": 5950,
      "Ġflower": 5951,
      "________": 5952,
      "Ġcloser": 5953,
      "Ġdistingu": 5954,
      "Ġbroken": 5955,
      "Ġ300": 5956,
      "Ġreturned": 5957,
      "Ġsignals": 5958,
      "pre": 5959,
      "Ġgreenhouse": 5960,
      "ato": 5961,
      "ĠNatural": 5962,
      "Ġstroke": 5963,
      "ĠAny": 5964,
      "ĠThrough": 5965,
      "Ġbattery": 5966,
      "Ġfract": 5967,
      "Ġneuro": 5968,
      "Ġelectron": 5969,
      "Bl": 5970,
      "alian": 5971,
      "ĠBro": 5972,
      "Ġlegs": 5973,
      "Ġsin": 5974,
      "Ġlisten": 5975,
      "orrow": 5976,
      "Ġpup": 5977,
      "Ġsubsequ": 5978,
      "Ġmyth": 5979,
      "Ġhttps": 5980,
      "ĠAtt": 5981,
      "Ġagency": 5982,
      "Ġpaid": 5983,
      "Ġcutting": 5984,
      "lets": 5985,
      "elesc": 5986,
      "Ġdoor": 5987,
      "using": 5988,
      "Ġminim": 5989,
      "Ġinstructions": 5990,
      "hesis": 5991,
      "Ġrevealed": 5992,
      "zen": 5993,
      "Ġtall": 5994,
      "Ġfoundation": 5995,
      "Ġselection": 5996,
      "Ġcomments": 5997,
      "irds": 5998,
      "akespe": 5999,
      "struct": 6000,
      "ĠCatholic": 6001,
      "Ġartificial": 6002,
      "Ġnest": 6003,
      "Ġfeeding": 6004,
      "Ġbear": 6005,
      "Ġknew": 6006,
      "othe": 6007,
      "Ġaircraft": 6008,
      "orter": 6009,
      "igure": 6010,
      "Ġimpossible": 6011,
      "Ġvulnerable": 6012,
      "Ġ2004": 6013,
      "Ġexercises": 6014,
      "uke": 6015,
      "ora": 6016,
      "Ġswitch": 6017,
      "Ġwife": 6018,
      "Ġinterests": 6019,
      "Ġbabies": 6020,
      "Ġexistence": 6021,
      "yles": 6022,
      "Ġapparent": 6023,
      "Ġformal": 6024,
      "Ġconsumers": 6025,
      "Ġbreath": 6026,
      "ague": 6027,
      "ibilities": 6028,
      "lam": 6029,
      "mic": 6030,
      "Ġbio": 6031,
      "Ġcomparison": 6032,
      "ache": 6033,
      "prise": 6034,
      "ĠIreland": 6035,
      "osqu": 6036,
      "Ġsupplement": 6037,
      "Ġchief": 6038,
      "ocking": 6039,
      "akespeare": 6040,
      "Ġmaps": 6041,
      "Ġuniverse": 6042,
      "ĠCommon": 6043,
      "Ġalgorith": 6044,
      "hand": 6045,
      "alse": 6046,
      "Ġdescription": 6047,
      "Ġsan": 6048,
      "cture": 6049,
      "Ġproport": 6050,
      "Ġclosed": 6051,
      "Ġputting": 6052,
      "ĠAcademy": 6053,
      "ĠHam": 6054,
      "Ġdomestic": 6055,
      "Ġvessels": 6056,
      "Ġemotions": 6057,
      "ĠBre": 6058,
      "Ġhydrogen": 6059,
      "Ġnine": 6060,
      "Ġcoffee": 6061,
      "osal": 6062,
      "Ġincl": 6063,
      "Ġ45": 6064,
      "inant": 6065,
      "Ġoutbre": 6066,
      "Ġmagnetic": 6067,
      "Ġcompounds": 6068,
      "roduction": 6069,
      "ellect": 6070,
      "Ġabund": 6071,
      "Ġphoto": 6072,
      "Ġreactions": 6073,
      "Ġvillage": 6074,
      "gers": 6075,
      "Ġsmoke": 6076,
      "Ġhur": 6077,
      "ĠMr": 6078,
      "Ġcultiv": 6079,
      "Ġopening": 6080,
      "Ġpray": 6081,
      "Ġfeedback": 6082,
      "Ġhole": 6083,
      "Ġpolice": 6084,
      "Ġdiscussed": 6085,
      "Ġtoler": 6086,
      "Ġcarefully": 6087,
      "Ġmountain": 6088,
      "fortunately": 6089,
      "Ġacceler": 6090,
      "example": 6091,
      "Ġsummary": 6092,
      "Ġdebate": 6093,
      "ĠJose": 6094,
      "Ġ2003": 6095,
      "Ġpermanent": 6096,
      "war": 6097,
      "Ġopposite": 6098,
      ".|": 6099,
      "Ġcm": 6100,
      "Ġtransition": 6101,
      "gans": 6102,
      "ĠKen": 6103,
      "Ġpoison": 6104,
      "racy": 6105,
      "Ġarmy": 6106,
      "mes": 6107,
      "ĠMont": 6108,
      "ĠColor": 6109,
      "ĠHenry": 6110,
      "opic": 6111,
      "Ġfacilit": 6112,
      "ĠRef": 6113,
      "Ġcovers": 6114,
      "Ġsupporting": 6115,
      "Ġvideos": 6116,
      "Ġopinion": 6117,
      "ĠGlobal": 6118,
      "Ġuns": 6119,
      "Ġphysics": 6120,
      "Ġdrain": 6121,
      "Ġdiscrim": 6122,
      "Ġclaims": 6123,
      "ĠArab": 6124,
      "ipping": 6125,
      "Ġarms": 6126,
      "Ġconcrete": 6127,
      "umes": 6128,
      "Ġenable": 6129,
      "Ġsupports": 6130,
      "Ġhandle": 6131,
      "36": 6132,
      "UR": 6133,
      "Ġconventional": 6134,
      "ĠFind": 6135,
      "Ġacts": 6136,
      "Ġ188": 6137,
      "American": 6138,
      "eper": 6139,
      "Ġrid": 6140,
      "ka": 6141,
      "Ġsuitable": 6142,
      "Ġauthority": 6143,
      "Ġoptim": 6144,
      "Ġchain": 6145,
      "Ġtrad": 6146,
      "Ġgenerated": 6147,
      "spec": 6148,
      "Ġnewsp": 6149,
      "Ġabsolute": 6150,
      "weight": 6151,
      "Ġacids": 6152,
      "Today": 6153,
      "Ġax": 6154,
      "ĠVict": 6155,
      "Ġtheme": 6156,
      "Ġfabric": 6157,
      "igare": 6158,
      "Ġadequ": 6159,
      "ivalent": 6160,
      "Ġlaboratory": 6161,
      "ĠPsych": 6162,
      "ĠThose": 6163,
      "Ġchick": 6164,
      "78": 6165,
      "Ġancest": 6166,
      "ĠCarolina": 6167,
      "ĠGold": 6168,
      "bra": 6169,
      "oding": 6170,
      "ĠCharles": 6171,
      "Ġrepeated": 6172,
      "ĠGard": 6173,
      "Ġconfidence": 6174,
      "ĠTer": 6175,
      "Ġmanaged": 6176,
      "ĠLab": 6177,
      "rating": 6178,
      "ĠAp": 6179,
      "Ġmarriage": 6180,
      "rin": 6181,
      "that": 6182,
      "Ġviruses": 6183,
      "Ġmulti": 6184,
      "Ġaqu": 6185,
      "Ġyield": 6186,
      "igan": 6187,
      "ĠForest": 6188,
      "Ġorganisms": 6189,
      "Ġturns": 6190,
      "Ġburning": 6191,
      "ĠDire": 6192,
      "Ġserver": 6193,
      "ĠExper": 6194,
      "ĠSmith": 6195,
      "ĠHall": 6196,
      "Ġcryst": 6197,
      "Ġcircumst": 6198,
      "Ġdifficulty": 6199,
      "organ": 6200,
      "Ġnose": 6201,
      "Ġassistance": 6202,
      "Ġcandid": 6203,
      "Gen": 6204,
      "Ġunless": 6205,
      "Ġaccounts": 6206,
      "Â·": 6207,
      "tering": 6208,
      "Ġpool": 6209,
      "utrit": 6210,
      "Ġpair": 6211,
      "Ġvolcan": 6212,
      "Ġpin": 6213,
      "uels": 6214,
      "inction": 6215,
      "ĠMain": 6216,
      "ĠFederal": 6217,
      "Ġshop": 6218,
      "Ġaccident": 6219,
      "afety": 6220,
      "itudes": 6221,
      "point": 6222,
      "Ġregional": 6223,
      "ĠResources": 6224,
      "Ġopened": 6225,
      "Let": 6226,
      "body": 6227,
      "hi": 6228,
      "Ġath": 6229,
      "Ġod": 6230,
      "Ġreform": 6231,
      "Ġbutter": 6232,
      "Ġpron": 6233,
      "Ġmachines": 6234,
      "See": 6235,
      "uter": 6236,
      "Ġagencies": 6237,
      "Ġrelax": 6238,
      "ML": 6239,
      "itative": 6240,
      "Ġwish": 6241,
      "icians": 6242,
      "ĠAdd": 6243,
      "IP": 6244,
      "wo": 6245,
      "ĠHave": 6246,
      "ĠLearn": 6247,
      "osph": 6248,
      "ĠDet": 6249,
      "ĠStep": 6250,
      "Ġflo": 6251,
      "Ġsecondary": 6252,
      "Ġarchae": 6253,
      "Ġdu": 6254,
      "Ġ1990": 6255,
      "Ġachieved": 6256,
      "ivery": 6257,
      "itely": 6258,
      "Ġcurren": 6259,
      "ait": 6260,
      "ĠRob": 6261,
      "Ġparticipate": 6262,
      "Ġexchange": 6263,
      "Ġattend": 6264,
      "Ġmechanism": 6265,
      "Ġobtained": 6266,
      "Ġprison": 6267,
      "Ġcart": 6268,
      "Ġknows": 6269,
      "ĠCompany": 6270,
      "Ġultimately": 6271,
      "Ġfavorite": 6272,
      "Ġplate": 6273,
      "Ġrecon": 6274,
      "Ġdepos": 6275,
      "orous": 6276,
      "ĠFurther": 6277,
      "Ġhistoric": 6278,
      "Ġstock": 6279,
      "ĠSouthern": 6280,
      "heimer": 6281,
      "Ġsell": 6282,
      "thritis": 6283,
      "ĠMill": 6284,
      "Ġflag": 6285,
      "Ġshapes": 6286,
      "Ġpsychological": 6287,
      "Ġsubstances": 6288,
      "44": 6289,
      "Ġcards": 6290,
      "Not": 6291,
      "Ġgun": 6292,
      "ĠBudd": 6293,
      "aped": 6294,
      "wing": 6295,
      "umps": 6296,
      "then": 6297,
      "Ġtons": 6298,
      "Ġerror": 6299,
      "last": 6300,
      "rus": 6301,
      "Ġstands": 6302,
      "osquit": 6303,
      "ctive": 6304,
      "Of": 6305,
      "ĠNor": 6306,
      "Ġimplementation": 6307,
      "Ġassemb": 6308,
      "icago": 6309,
      "Ġrestrict": 6310,
      "Ġdamaged": 6311,
      "Ġbehaviors": 6312,
      "ashion": 6313,
      "hist": 6314,
      "ĠNav": 6315,
      "under": 6316,
      "Ġdut": 6317,
      "Ġgluc": 6318,
      "Ġforget": 6319,
      "Ġremaining": 6320,
      "formation": 6321,
      "ĠWik": 6322,
      "Ġdepartment": 6323,
      "gent": 6324,
      "ups": 6325,
      "ĠSing": 6326,
      "ĠMo": 6327,
      "ĠGroup": 6328,
      "ĠEarly": 6329,
      "Ġtrip": 6330,
      "Ġvote": 6331,
      "âĢĺ": 6332,
      "Ġshift": 6333,
      "Ġindicates": 6334,
      "ĠClimate": 6335,
      "Ġstruggle": 6336,
      "Ġrenewable": 6337,
      "olf": 6338,
      "ĠIP": 6339,
      "ĠFace": 6340,
      "ĠStreet": 6341,
      "ĠCheck": 6342,
      "zed": 6343,
      "ĠOh": 6344,
      "anged": 6345,
      "ini": 6346,
      "Ġscholars": 6347,
      "Ġpure": 6348,
      "Ġgap": 6349,
      "ediatric": 6350,
      "heast": 6351,
      "Ġarts": 6352,
      "Ġblocks": 6353,
      "Ġsupplies": 6354,
      "ĠAdminist": 6355,
      "Ġbudget": 6356,
      "itt": 6357,
      "38": 6358,
      "ĠCanadian": 6359,
      "Ġwors": 6360,
      "orses": 6361,
      "Ġcultures": 6362,
      "Ġinteraction": 6363,
      "Ġgreatly": 6364,
      "Ġnearby": 6365,
      "ĠEmp": 6366,
      "Ġtank": 6367,
      "Ġclust": 6368,
      "Ġmaintenance": 6369,
      "Ġlaunched": 6370,
      "ĠLong": 6371,
      "ĠYear": 6372,
      "ourage": 6373,
      "Ġdensity": 6374,
      "Ġnoise": 6375,
      "Ġmoral": 6376,
      "anda": 6377,
      "Ġrising": 6378,
      "Ġtrib": 6379,
      "Ġtransportation": 6380,
      "amins": 6381,
      "ditionally": 6382,
      "Ġwasn": 6383,
      "Ġprinciple": 6384,
      "ĠTem": 6385,
      "Ġconsumer": 6386,
      "ella": 6387,
      "Once": 6388,
      "Ġgone": 6389,
      "ohyd": 6390,
      "Ġmixed": 6391,
      "ĠPlease": 6392,
      "Ġunknown": 6393,
      "Ġliterary": 6394,
      "Ġcos": 6395,
      "Ġepid": 6396,
      "Ġamb": 6397,
      "Ġswim": 6398,
      "Ġcircle": 6399
    },
    "merges": [
      [
        "Ġ",
        "t"
      ],
      [
        "Ġ",
        "a"
      ],
      [
        "h",
        "e"
      ],
      [
        "i",
        "n"
      ],
      [
        "r",
        "e"
      ],
      [
        "Ġt",
        "he"
      ],
      [
        "Ġ",
        "o"
      ],
      [
        "e",
        "r"
      ],
      [
        "Ġ",
        "s"
      ],
      [
        "a",
        "t"
      ],
      [
        "o",
        "n"
      ],
      [
        "Ġ",
        "c"
      ],
      [
        "e",
        "n"
      ],
      [
        "e",
        "s"
      ],
      [
        "Ġ",
        "w"
      ],
      [
        "i",
        "s"
      ],
      [
        "n",
        "d"
      ],
      [
        "i",
        "t"
      ],
      [
        "o",
        "r"
      ],
      [
        "Ġ",
        "p"
      ],
      [
        "a",
        "l"
      ],
      [
        "Ġ",
        "b"
      ],
      [
        "Ġ",
        "f"
      ],
      [
        "a",
        "n"
      ],
      [
        "in",
        "g"
      ],
      [
        "e",
        "d"
      ],
      [
        "Ġo",
        "f"
      ],
      [
        "o",
        "u"
      ],
      [
        "Ġ",
        "in"
      ],
      [
        "a",
        "r"
      ],
      [
        "Ġ",
        "m"
      ],
      [
        "Ġt",
        "o"
      ],
      [
        "Ġa",
        "nd"
      ],
      [
        "i",
        "c"
      ],
      [
        "Ġ",
        "d"
      ],
      [
        "i",
        "on"
      ],
      [
        "l",
        "e"
      ],
      [
        "r",
        "o"
      ],
      [
        "a",
        "s"
      ],
      [
        "Ġ",
        "h"
      ],
      [
        "Ġt",
        "h"
      ],
      [
        "en",
        "t"
      ],
      [
        "c",
        "t"
      ],
      [
        "i",
        "l"
      ],
      [
        "Ġ",
        "e"
      ],
      [
        "Ġ",
        "re"
      ],
      [
        "v",
        "e"
      ],
      [
        "Ġ",
        "l"
      ],
      [
        "o",
        "m"
      ],
      [
        "s",
        "t"
      ],
      [
        "Ġ",
        "n"
      ],
      [
        "â",
        "Ģ"
      ],
      [
        "Ġ",
        "is"
      ],
      [
        "Ġb",
        "e"
      ],
      [
        "l",
        "y"
      ],
      [
        "s",
        "e"
      ],
      [
        "Ġ",
        "g"
      ],
      [
        "o",
        "l"
      ],
      [
        "Ġ",
        "T"
      ],
      [
        "e",
        "t"
      ],
      [
        "i",
        "d"
      ],
      [
        "at",
        "ion"
      ],
      [
        "i",
        "m"
      ],
      [
        "u",
        "t"
      ],
      [
        "o",
        "w"
      ],
      [
        "u",
        "r"
      ],
      [
        "c",
        "h"
      ],
      [
        "o",
        "t"
      ],
      [
        "c",
        "e"
      ],
      [
        "r",
        "a"
      ],
      [
        "Ġ",
        "y"
      ],
      [
        "Ġf",
        "or"
      ],
      [
        "Ġ",
        "u"
      ],
      [
        "i",
        "g"
      ],
      [
        "Ġo",
        "n"
      ],
      [
        "Ġs",
        "t"
      ],
      [
        "Ġth",
        "at"
      ],
      [
        "Ġ",
        "A"
      ],
      [
        "v",
        "er"
      ],
      [
        "Ġ",
        "S"
      ],
      [
        "i",
        "r"
      ],
      [
        "a",
        "y"
      ],
      [
        "Ġ",
        "C"
      ],
      [
        "u",
        "l"
      ],
      [
        "Ġy",
        "ou"
      ],
      [
        "Ġ",
        "I"
      ],
      [
        "a",
        "m"
      ],
      [
        "Ġa",
        "re"
      ],
      [
        "e",
        "l"
      ],
      [
        "it",
        "h"
      ],
      [
        "Ġa",
        "s"
      ],
      [
        "Ġp",
        "ro"
      ],
      [
        "a",
        "d"
      ],
      [
        "he",
        "r"
      ],
      [
        "Ġa",
        "n"
      ],
      [
        "Ġc",
        "on"
      ],
      [
        "Ġw",
        "ith"
      ],
      [
        "Ġo",
        "r"
      ],
      [
        "i",
        "f"
      ],
      [
        "Ġ",
        "it"
      ],
      [
        "Ġw",
        "h"
      ],
      [
        "Ġa",
        "l"
      ],
      [
        "o",
        "d"
      ],
      [
        "t",
        "er"
      ],
      [
        "g",
        "e"
      ],
      [
        "t",
        "h"
      ],
      [
        "ĠT",
        "he"
      ],
      [
        "m",
        "ent"
      ],
      [
        "o",
        "p"
      ],
      [
        "il",
        "l"
      ],
      [
        "es",
        "s"
      ],
      [
        "Ġ",
        "M"
      ],
      [
        "er",
        "s"
      ],
      [
        "Ġ",
        "he"
      ],
      [
        "at",
        "e"
      ],
      [
        "t",
        "s"
      ],
      [
        "Ġd",
        "e"
      ],
      [
        "âĢ",
        "Ļ"
      ],
      [
        "Ġ",
        "P"
      ],
      [
        "i",
        "es"
      ],
      [
        "Ġe",
        "x"
      ],
      [
        "a",
        "b"
      ],
      [
        "o",
        "re"
      ],
      [
        "e",
        "ct"
      ],
      [
        "Ġc",
        "om"
      ],
      [
        "Ġ",
        "("
      ],
      [
        "Ġ",
        "1"
      ],
      [
        "Ġs",
        "u"
      ],
      [
        "Ġh",
        "a"
      ],
      [
        "Ġw",
        "e"
      ],
      [
        "k",
        "e"
      ],
      [
        "u",
        "s"
      ],
      [
        "i",
        "ve"
      ],
      [
        "Ġ",
        "B"
      ],
      [
        "a",
        "c"
      ],
      [
        "it",
        "y"
      ],
      [
        "ro",
        "m"
      ],
      [
        "u",
        "m"
      ],
      [
        "Ġ",
        "v"
      ],
      [
        "l",
        "d"
      ],
      [
        "Ġc",
        "an"
      ],
      [
        "re",
        "s"
      ],
      [
        "is",
        "t"
      ],
      [
        "es",
        "t"
      ],
      [
        "o",
        "s"
      ],
      [
        "Ġa",
        "t"
      ],
      [
        "Ġ",
        "W"
      ],
      [
        "u",
        "d"
      ],
      [
        "q",
        "u"
      ],
      [
        "e",
        "m"
      ],
      [
        "Ġc",
        "h"
      ],
      [
        "Ġb",
        "y"
      ],
      [
        "ig",
        "h"
      ],
      [
        "Ġ",
        "H"
      ],
      [
        "i",
        "v"
      ],
      [
        "a",
        "in"
      ],
      [
        "p",
        "p"
      ],
      [
        "Ġf",
        "rom"
      ],
      [
        "Ġn",
        "e"
      ],
      [
        "Ġ",
        "D"
      ],
      [
        "Ġ",
        "r"
      ],
      [
        "o",
        "c"
      ],
      [
        "n",
        "t"
      ],
      [
        "a",
        "nd"
      ],
      [
        "Ġ",
        "E"
      ],
      [
        "Ġs",
        "e"
      ],
      [
        "Ġ",
        "le"
      ],
      [
        "i",
        "al"
      ],
      [
        "Ġw",
        "as"
      ],
      [
        "Ġ",
        "âĢ"
      ],
      [
        "an",
        "t"
      ],
      [
        "u",
        "re"
      ],
      [
        "u",
        "n"
      ],
      [
        "Ġ",
        "F"
      ],
      [
        "Ġha",
        "ve"
      ],
      [
        "Ġ",
        "R"
      ],
      [
        "or",
        "t"
      ],
      [
        "ic",
        "al"
      ],
      [
        "Ġn",
        "ot"
      ],
      [
        "o",
        "g"
      ],
      [
        "Ġs",
        "h"
      ],
      [
        "Ġ",
        "en"
      ],
      [
        "Ġ",
        "N"
      ],
      [
        "Ġs",
        "p"
      ],
      [
        "Ġ",
        "2"
      ],
      [
        "ar",
        "t"
      ],
      [
        "Ġth",
        "is"
      ],
      [
        "Ġa",
        "b"
      ],
      [
        "Ġw",
        "or"
      ],
      [
        "T",
        "he"
      ],
      [
        "r",
        "i"
      ],
      [
        "Ġ",
        "G"
      ],
      [
        "Ġ",
        "L"
      ],
      [
        "r",
        "ou"
      ],
      [
        "al",
        "l"
      ],
      [
        "ou",
        "t"
      ],
      [
        "Ġyou",
        "r"
      ],
      [
        "om",
        "e"
      ],
      [
        "ou",
        "r"
      ],
      [
        "a",
        "p"
      ],
      [
        "o",
        "st"
      ],
      [
        "Ġu",
        "s"
      ],
      [
        "Ġp",
        "l"
      ],
      [
        "d",
        "u"
      ],
      [
        "Ġ",
        "im"
      ],
      [
        "g",
        "h"
      ],
      [
        "re",
        "d"
      ],
      [
        "in",
        "e"
      ],
      [
        "ou",
        "ld"
      ],
      [
        "ion",
        "s"
      ],
      [
        "ic",
        "h"
      ],
      [
        "id",
        "e"
      ],
      [
        "a",
        "g"
      ],
      [
        "e",
        "ar"
      ],
      [
        "igh",
        "t"
      ],
      [
        "t",
        "her"
      ],
      [
        "a",
        "ct"
      ],
      [
        "el",
        "l"
      ],
      [
        "ar",
        "d"
      ],
      [
        "at",
        "ed"
      ],
      [
        "Ġthe",
        "ir"
      ],
      [
        "f",
        "f"
      ],
      [
        "0",
        "0"
      ],
      [
        "Ġw",
        "ill"
      ],
      [
        "a",
        "ge"
      ],
      [
        "Ġin",
        "t"
      ],
      [
        "Ġ",
        "k"
      ],
      [
        "o",
        "od"
      ],
      [
        "a",
        "k"
      ],
      [
        "p",
        "l"
      ],
      [
        "as",
        "t"
      ],
      [
        "Ġthe",
        "y"
      ],
      [
        "Ġw",
        "he"
      ],
      [
        "p",
        "er"
      ],
      [
        "u",
        "st"
      ],
      [
        "Ġm",
        "ore"
      ],
      [
        "p",
        "t"
      ],
      [
        "e",
        "c"
      ],
      [
        "an",
        "s"
      ],
      [
        "Ġ",
        "U"
      ],
      [
        "Ġ",
        "O"
      ],
      [
        "Ġa",
        "d"
      ],
      [
        "Ġd",
        "is"
      ],
      [
        "Ġal",
        "l"
      ],
      [
        "Ġwh",
        "ich"
      ],
      [
        "Ġin",
        "c"
      ],
      [
        "Ġcon",
        "t"
      ],
      [
        "ou",
        "s"
      ],
      [
        "Ġcom",
        "p"
      ],
      [
        "i",
        "z"
      ],
      [
        "il",
        "d"
      ],
      [
        "Ġh",
        "as"
      ],
      [
        "re",
        "n"
      ],
      [
        "ve",
        "l"
      ],
      [
        "âĢ",
        "Ŀ"
      ],
      [
        "r",
        "u"
      ],
      [
        "Ġd",
        "o"
      ],
      [
        "i",
        "b"
      ],
      [
        "en",
        "d"
      ],
      [
        "c",
        "c"
      ],
      [
        "on",
        "g"
      ],
      [
        "at",
        "er"
      ],
      [
        "or",
        "m"
      ],
      [
        "e",
        "w"
      ],
      [
        "Ġre",
        "s"
      ],
      [
        "s",
        "o"
      ],
      [
        "i",
        "p"
      ],
      [
        "ĠI",
        "n"
      ],
      [
        "i",
        "a"
      ],
      [
        "Ġt",
        "e"
      ],
      [
        "k",
        "s"
      ],
      [
        "Ġc",
        "l"
      ],
      [
        "ation",
        "s"
      ],
      [
        "ent",
        "s"
      ],
      [
        "ar",
        "y"
      ],
      [
        "Ġ",
        "J"
      ],
      [
        "ab",
        "le"
      ],
      [
        "in",
        "d"
      ],
      [
        "r",
        "y"
      ],
      [
        "Ġm",
        "an"
      ],
      [
        "a",
        "ke"
      ],
      [
        "al",
        "ly"
      ],
      [
        "Ġo",
        "ther"
      ],
      [
        "ĠT",
        "h"
      ],
      [
        "en",
        "ce"
      ],
      [
        "Ġb",
        "ut"
      ],
      [
        "e",
        "p"
      ],
      [
        "Ġim",
        "p"
      ],
      [
        "o",
        "o"
      ],
      [
        "Ġst",
        "ud"
      ],
      [
        "'",
        "s"
      ],
      [
        "a",
        "ch"
      ],
      [
        "Ġal",
        "so"
      ],
      [
        "re",
        "at"
      ],
      [
        "Ġon",
        "e"
      ],
      [
        "Ġ",
        "j"
      ],
      [
        "ul",
        "t"
      ],
      [
        "Ġm",
        "e"
      ],
      [
        "a",
        "re"
      ],
      [
        "Ġab",
        "out"
      ],
      [
        "Ġp",
        "er"
      ],
      [
        "as",
        "e"
      ],
      [
        "ĠâĢ",
        "ľ"
      ],
      [
        "as",
        "s"
      ],
      [
        "Ġo",
        "ut"
      ],
      [
        "r",
        "it"
      ],
      [
        "an",
        "ce"
      ],
      [
        "Ġs",
        "o"
      ],
      [
        "ig",
        "n"
      ],
      [
        "ver",
        "y"
      ],
      [
        "a",
        "u"
      ],
      [
        "ic",
        "e"
      ],
      [
        "a",
        "v"
      ],
      [
        "on",
        "e"
      ],
      [
        "res",
        "s"
      ],
      [
        "Ġp",
        "e"
      ],
      [
        "Ġt",
        "im"
      ],
      [
        "or",
        "y"
      ],
      [
        "ct",
        "ion"
      ],
      [
        "f",
        "e"
      ],
      [
        "Ġs",
        "c"
      ],
      [
        "Ġin",
        "f"
      ],
      [
        "a",
        "ce"
      ],
      [
        "Ġa",
        "r"
      ],
      [
        "Ġwh",
        "o"
      ],
      [
        "or",
        "d"
      ],
      [
        "Ġu",
        "n"
      ],
      [
        "Ġa",
        "pp"
      ],
      [
        "b",
        "er"
      ],
      [
        "Ġwe",
        "re"
      ],
      [
        "i",
        "ke"
      ],
      [
        "ac",
        "k"
      ],
      [
        "Ġe",
        "v"
      ],
      [
        "Ġs",
        "y"
      ],
      [
        "is",
        "h"
      ],
      [
        "en",
        "s"
      ],
      [
        "ay",
        "s"
      ],
      [
        "ĠS",
        "t"
      ],
      [
        "ou",
        "nd"
      ],
      [
        "Ġthe",
        "m"
      ],
      [
        "am",
        "e"
      ],
      [
        "an",
        "g"
      ],
      [
        "it",
        "ion"
      ],
      [
        "Ġd",
        "i"
      ],
      [
        "n",
        "ow"
      ],
      [
        "u",
        "b"
      ],
      [
        "or",
        "s"
      ],
      [
        "o",
        "se"
      ],
      [
        "l",
        "ow"
      ],
      [
        "u",
        "e"
      ],
      [
        "re",
        "e"
      ],
      [
        "Ġcom",
        "m"
      ],
      [
        "ol",
        "og"
      ],
      [
        "op",
        "le"
      ],
      [
        "Ġu",
        "p"
      ],
      [
        "c",
        "es"
      ],
      [
        "Ġy",
        "ear"
      ],
      [
        "Ġ",
        "qu"
      ],
      [
        "Ġp",
        "re"
      ],
      [
        "ou",
        "nt"
      ],
      [
        "Ġth",
        "an"
      ],
      [
        "Ġbe",
        "c"
      ],
      [
        "Ġp",
        "art"
      ],
      [
        "Ġm",
        "ay"
      ],
      [
        "r",
        "ic"
      ],
      [
        "Ġh",
        "ow"
      ],
      [
        "it",
        "e"
      ],
      [
        "k",
        "ing"
      ],
      [
        "Ġs",
        "ome"
      ],
      [
        "i",
        "le"
      ],
      [
        "a",
        "il"
      ],
      [
        "Ġwhe",
        "n"
      ],
      [
        "Ġre",
        "c"
      ],
      [
        "m",
        "er"
      ],
      [
        "Ġ1",
        "9"
      ],
      [
        "ĠI",
        "t"
      ],
      [
        "Ġpe",
        "ople"
      ],
      [
        "Ġo",
        "ur"
      ],
      [
        "Ġs",
        "a"
      ],
      [
        "ver",
        "s"
      ],
      [
        "Ġu",
        "se"
      ],
      [
        "ing",
        "s"
      ],
      [
        "Ġc",
        "ol"
      ],
      [
        "i",
        "e"
      ],
      [
        "al",
        "th"
      ],
      [
        "p",
        "h"
      ],
      [
        "Ġint",
        "o"
      ],
      [
        "nd",
        "er"
      ],
      [
        "Ġtim",
        "e"
      ],
      [
        "at",
        "es"
      ],
      [
        "Ġbe",
        "en"
      ],
      [
        "Ġg",
        "o"
      ],
      [
        "Ġ",
        "K"
      ],
      [
        "ou",
        "gh"
      ],
      [
        "Ġ",
        "ro"
      ],
      [
        "Ġh",
        "is"
      ],
      [
        "Ġhe",
        "l"
      ],
      [
        "Ġthe",
        "re"
      ],
      [
        "Ġt",
        "ra"
      ],
      [
        "Ġo",
        "ver"
      ],
      [
        "rou",
        "gh"
      ],
      [
        "Ġl",
        "ike"
      ],
      [
        "Ġd",
        "if"
      ],
      [
        "l",
        "ud"
      ],
      [
        "au",
        "se"
      ],
      [
        "Ġit",
        "s"
      ],
      [
        "Ġch",
        "ild"
      ],
      [
        "t",
        "e"
      ],
      [
        "Ġthe",
        "se"
      ],
      [
        "Ġb",
        "l"
      ],
      [
        "ĠTh",
        "is"
      ],
      [
        "Ġ2",
        "0"
      ],
      [
        "er",
        "v"
      ],
      [
        "Ġne",
        "w"
      ],
      [
        "m",
        "s"
      ],
      [
        "Ġ",
        "\""
      ],
      [
        "Ġk",
        "now"
      ],
      [
        "y",
        "s"
      ],
      [
        "ĠC",
        "h"
      ],
      [
        "Ġhel",
        "p"
      ],
      [
        "Ġa",
        "g"
      ],
      [
        "Ġm",
        "ost"
      ],
      [
        "on",
        "s"
      ],
      [
        "Ġne",
        "ed"
      ],
      [
        "l",
        "l"
      ],
      [
        "n",
        "ing"
      ],
      [
        "re",
        "nt"
      ],
      [
        "Ġa",
        "ct"
      ],
      [
        "ro",
        "w"
      ],
      [
        "Ġ",
        "ra"
      ],
      [
        "l",
        "es"
      ],
      [
        "i",
        "an"
      ],
      [
        "j",
        "ect"
      ],
      [
        "vel",
        "op"
      ],
      [
        "o",
        "ve"
      ],
      [
        "u",
        "al"
      ],
      [
        "ir",
        "st"
      ],
      [
        "ter",
        "n"
      ],
      [
        "Ġbe",
        "t"
      ],
      [
        "on",
        "d"
      ],
      [
        "Ġ",
        "Y"
      ],
      [
        "Ġcon",
        "s"
      ],
      [
        "ff",
        "ect"
      ],
      [
        "if",
        "ic"
      ],
      [
        "Ġ",
        "V"
      ],
      [
        "le",
        "ct"
      ],
      [
        "Ġu",
        "nder"
      ],
      [
        "w",
        "e"
      ],
      [
        "Ġt",
        "r"
      ],
      [
        "Ġ",
        "if"
      ],
      [
        "it",
        "ies"
      ],
      [
        "o",
        "ol"
      ],
      [
        "l",
        "ic"
      ],
      [
        ")",
        "."
      ],
      [
        "i",
        "ent"
      ],
      [
        "ment",
        "s"
      ],
      [
        "Ġa",
        "cc"
      ],
      [
        "Ġ",
        "3"
      ],
      [
        "st",
        "em"
      ],
      [
        "Ġinc",
        "lud"
      ],
      [
        "Ġd",
        "es"
      ],
      [
        "Ġwh",
        "at"
      ],
      [
        "Ġt",
        "w"
      ],
      [
        "p",
        "le"
      ],
      [
        "Ġwor",
        "k"
      ],
      [
        "i",
        "ous"
      ],
      [
        "Ġus",
        "ed"
      ],
      [
        "Ġp",
        "h"
      ],
      [
        "o",
        "b"
      ],
      [
        "i",
        "re"
      ],
      [
        "oo",
        "k"
      ],
      [
        "Ġw",
        "ould"
      ],
      [
        "Ġsu",
        "ch"
      ],
      [
        "at",
        "ing"
      ],
      [
        "Ġf",
        "e"
      ],
      [
        "Ġde",
        "velop"
      ],
      [
        "y",
        "p"
      ],
      [
        "Ġre",
        "p"
      ],
      [
        "Ġman",
        "y"
      ],
      [
        "Ġan",
        "y"
      ],
      [
        "ation",
        "al"
      ],
      [
        "Ġpro",
        "du"
      ],
      [
        "rou",
        "nd"
      ],
      [
        "at",
        "ive"
      ],
      [
        "Ġg",
        "en"
      ],
      [
        "c",
        "ess"
      ],
      [
        "he",
        "d"
      ],
      [
        "ul",
        "ar"
      ],
      [
        "Ġre",
        "l"
      ],
      [
        "Ġth",
        "rough"
      ],
      [
        "ic",
        "s"
      ],
      [
        "Ġf",
        "irst"
      ],
      [
        "Ġsp",
        "ec"
      ],
      [
        "Ġpro",
        "v"
      ],
      [
        "Ġre",
        "se"
      ],
      [
        "Ġ",
        "-"
      ],
      [
        "ar",
        "ch"
      ],
      [
        "Ġon",
        "ly"
      ],
      [
        "o",
        "v"
      ],
      [
        "et",
        "h"
      ],
      [
        "ĠU",
        "n"
      ],
      [
        "u",
        "c"
      ],
      [
        "o",
        "in"
      ],
      [
        "Ġp",
        "r"
      ],
      [
        "is",
        "e"
      ],
      [
        "Ġa",
        "c"
      ],
      [
        "Ġh",
        "ad"
      ],
      [
        "at",
        "h"
      ],
      [
        "c",
        "ed"
      ],
      [
        "ĠâĢ",
        "ĵ"
      ],
      [
        "Ġw",
        "ater"
      ],
      [
        "Ġa",
        "m"
      ],
      [
        "Ġdif",
        "fe"
      ],
      [
        "f",
        "ul"
      ],
      [
        "Ġhe",
        "alth"
      ],
      [
        "ur",
        "ing"
      ],
      [
        "os",
        "s"
      ],
      [
        "Ġn",
        "o"
      ],
      [
        "f",
        "ter"
      ],
      [
        "he",
        "n"
      ],
      [
        "Ġof",
        "f"
      ],
      [
        "Ġe",
        "m"
      ],
      [
        "al",
        "s"
      ],
      [
        "Ġsy",
        "stem"
      ],
      [
        "b",
        "le"
      ],
      [
        "Ġtw",
        "o"
      ],
      [
        "ar",
        "k"
      ],
      [
        "Ġin",
        "d"
      ],
      [
        "Ġf",
        "l"
      ],
      [
        "an",
        "ge"
      ],
      [
        "Ġad",
        "d"
      ],
      [
        "t",
        "en"
      ],
      [
        "ot",
        "h"
      ],
      [
        "is",
        "s"
      ],
      [
        "Ġs",
        "ur"
      ],
      [
        "if",
        "e"
      ],
      [
        "n",
        "e"
      ],
      [
        "ĠH",
        "e"
      ],
      [
        "Ġg",
        "et"
      ],
      [
        "Ġex",
        "p"
      ],
      [
        "ol",
        "d"
      ],
      [
        "Ġre",
        "g"
      ],
      [
        "er",
        "m"
      ],
      [
        "ra",
        "m"
      ],
      [
        "ow",
        "n"
      ],
      [
        "ro",
        "p"
      ],
      [
        "Ġm",
        "ake"
      ],
      [
        "Ġs",
        "m"
      ],
      [
        "t",
        "ing"
      ],
      [
        "Ġde",
        "c"
      ],
      [
        "Ġw",
        "ell"
      ],
      [
        "ib",
        "le"
      ],
      [
        "as",
        "ed"
      ],
      [
        "Ġyear",
        "s"
      ],
      [
        "I",
        "n"
      ],
      [
        "Ġsh",
        "ould"
      ],
      [
        "u",
        "res"
      ],
      [
        "n",
        "g"
      ],
      [
        "Ġo",
        "b"
      ],
      [
        "ch",
        "ool"
      ],
      [
        "ri",
        "b"
      ],
      [
        "Ġle",
        "ar"
      ],
      [
        "il",
        "ity"
      ],
      [
        "ow",
        "er"
      ],
      [
        "Ġat",
        "t"
      ],
      [
        "ra",
        "ct"
      ],
      [
        "Ġas",
        "s"
      ],
      [
        "h",
        "at"
      ],
      [
        "ch",
        "n"
      ],
      [
        "Ġ20",
        "1"
      ],
      [
        "Ġre",
        "m"
      ],
      [
        "Ġh",
        "igh"
      ],
      [
        "i",
        "ence"
      ],
      [
        "Ġc",
        "ould"
      ],
      [
        "he",
        "s"
      ],
      [
        "olog",
        "y"
      ],
      [
        "Ġsu",
        "pp"
      ],
      [
        "f",
        "ore"
      ],
      [
        "er",
        "t"
      ],
      [
        "Ġin",
        "v"
      ],
      [
        "ic",
        "k"
      ],
      [
        "Ġimp",
        "ort"
      ],
      [
        "x",
        "t"
      ],
      [
        "il",
        "y"
      ],
      [
        "mer",
        "ic"
      ],
      [
        "Ġb",
        "u"
      ],
      [
        "w",
        "n"
      ],
      [
        ")",
        ","
      ],
      [
        "it",
        "s"
      ],
      [
        "ad",
        "e"
      ],
      [
        "g",
        "an"
      ],
      [
        "we",
        "en"
      ],
      [
        "an",
        "ts"
      ],
      [
        "Ġsa",
        "id"
      ],
      [
        "Ġwhe",
        "re"
      ],
      [
        "Ġc",
        "o"
      ],
      [
        "u",
        "ch"
      ],
      [
        "s",
        "s"
      ],
      [
        "orm",
        "ation"
      ],
      [
        "Ġsu",
        "b"
      ],
      [
        "Ġex",
        "am"
      ],
      [
        "c",
        "y"
      ],
      [
        "in",
        "k"
      ],
      [
        "Ġp",
        "ers"
      ],
      [
        "Ġc",
        "ar"
      ],
      [
        "is",
        "ts"
      ],
      [
        "Ġp",
        "res"
      ],
      [
        "Ġf",
        "ound"
      ],
      [
        "ut",
        "ion"
      ],
      [
        "Ġbet",
        "ween"
      ],
      [
        "Ġfor",
        "m"
      ],
      [
        "Ġn",
        "um"
      ],
      [
        "Ġe",
        "ar"
      ],
      [
        "i",
        "ed"
      ],
      [
        "Ġwor",
        "ld"
      ],
      [
        "se",
        "l"
      ],
      [
        "Ġdis",
        "c"
      ],
      [
        "ur",
        "al"
      ],
      [
        "Ġex",
        "per"
      ],
      [
        "u",
        "ally"
      ],
      [
        "in",
        "es"
      ],
      [
        "er",
        "g"
      ],
      [
        "l",
        "and"
      ],
      [
        "Ġj",
        "ust"
      ],
      [
        "Ġ",
        "4"
      ],
      [
        "Ġdiffe",
        "rent"
      ],
      [
        "ic",
        "t"
      ],
      [
        "Ġchild",
        "ren"
      ],
      [
        "Ġe",
        "ffect"
      ],
      [
        "id",
        "ent"
      ],
      [
        "Ġstud",
        "ents"
      ],
      [
        "Ġw",
        "rit"
      ],
      [
        "Ġ",
        "ke"
      ],
      [
        "Ġt",
        "yp"
      ],
      [
        "Ġl",
        "ong"
      ],
      [
        "Ġw",
        "ay"
      ],
      [
        "Ġin",
        "st"
      ],
      [
        "e",
        "ver"
      ],
      [
        "i",
        "et"
      ],
      [
        "Ġtr",
        "ans"
      ],
      [
        "Ġ",
        "her"
      ],
      [
        "Ġ",
        "5"
      ],
      [
        "f",
        "t"
      ],
      [
        "Ġs",
        "im"
      ],
      [
        "Ġm",
        "ed"
      ],
      [
        "i",
        "vers"
      ],
      [
        "Ġ",
        "ed"
      ],
      [
        "at",
        "a"
      ],
      [
        "in",
        "s"
      ],
      [
        "Ġm",
        "od"
      ],
      [
        "Ġ",
        "very"
      ],
      [
        "Ġbec",
        "ause"
      ],
      [
        "r",
        "on"
      ],
      [
        "Ġl",
        "ar"
      ],
      [
        "ak",
        "ing"
      ],
      [
        "Ġse",
        "e"
      ],
      [
        "T",
        "h"
      ],
      [
        "it",
        "ed"
      ],
      [
        "e",
        "f"
      ],
      [
        "Ġev",
        "en"
      ],
      [
        "g",
        "et"
      ],
      [
        "at",
        "ure"
      ],
      [
        "Ġf",
        "ood"
      ],
      [
        "Ġp",
        "ol"
      ],
      [
        "a",
        "w"
      ],
      [
        "v",
        "ent"
      ],
      [
        "Ġe",
        "very"
      ],
      [
        "Ġa",
        "fter"
      ],
      [
        "Ġthe",
        "n"
      ],
      [
        "ĠA",
        "meric"
      ],
      [
        "Ġte",
        "chn"
      ],
      [
        "d",
        "s"
      ],
      [
        "Ġpro",
        "g"
      ],
      [
        "Ġinc",
        "re"
      ],
      [
        "Ġg",
        "ra"
      ],
      [
        "Ġc",
        "ent"
      ],
      [
        "c",
        "er"
      ],
      [
        "Ġh",
        "um"
      ],
      [
        "Ġin",
        "ter"
      ],
      [
        "Ġstud",
        "y"
      ],
      [
        "her",
        "s"
      ],
      [
        "Ġre",
        "ad"
      ],
      [
        "Ġs",
        "k"
      ],
      [
        "Ġimport",
        "ant"
      ],
      [
        "Ġd",
        "et"
      ],
      [
        "od",
        "y"
      ],
      [
        "iv",
        "es"
      ],
      [
        "Ġc",
        "ount"
      ],
      [
        "ur",
        "n"
      ],
      [
        "ar",
        "m"
      ],
      [
        "Ġp",
        "ub"
      ],
      [
        "ir",
        "on"
      ],
      [
        "Ġinf",
        "ormation"
      ],
      [
        "i",
        "ew"
      ],
      [
        "t",
        "ed"
      ],
      [
        "ical",
        "ly"
      ],
      [
        "as",
        "es"
      ],
      [
        "Ġv",
        "ar"
      ],
      [
        "Ġf",
        "ind"
      ],
      [
        "Ġl",
        "ife"
      ],
      [
        "Ġc",
        "all"
      ],
      [
        "o",
        "y"
      ],
      [
        "c",
        "k"
      ],
      [
        "Ġs",
        "ign"
      ],
      [
        "u",
        "es"
      ],
      [
        "Ġth",
        "ose"
      ],
      [
        "Ġc",
        "re"
      ],
      [
        "ag",
        "es"
      ],
      [
        "Ġres",
        "p"
      ],
      [
        "Ġe",
        "ach"
      ],
      [
        "Ġpro",
        "cess"
      ],
      [
        "Ġar",
        "t"
      ],
      [
        "Ġrese",
        "arch"
      ],
      [
        "ol",
        "low"
      ],
      [
        "Ġp",
        "at"
      ],
      [
        "Ġf",
        "am"
      ],
      [
        "Ġgen",
        "er"
      ],
      [
        "Ġex",
        "t"
      ],
      [
        "Ġl",
        "oc"
      ],
      [
        "c",
        "ent"
      ],
      [
        "e",
        "re"
      ],
      [
        "ot",
        "her"
      ],
      [
        "Ġm",
        "uch"
      ],
      [
        "Ġbe",
        "ing"
      ],
      [
        ".",
        "âĢĿ"
      ],
      [
        "Ġ",
        "ess"
      ],
      [
        "Ġs",
        "chool"
      ],
      [
        "ru",
        "ct"
      ],
      [
        "Ġf",
        "act"
      ],
      [
        "f",
        "orm"
      ],
      [
        "Ġm",
        "on"
      ],
      [
        "ĠW",
        "e"
      ],
      [
        "Ġpro",
        "ble"
      ],
      [
        "Ġs",
        "he"
      ],
      [
        "Ġs",
        "oc"
      ],
      [
        "Ġc",
        "he"
      ],
      [
        "n",
        "ess"
      ],
      [
        "Ġg",
        "row"
      ],
      [
        "is",
        "m"
      ],
      [
        "t",
        "le"
      ],
      [
        "Ġ2",
        "00"
      ],
      [
        "p",
        "s"
      ],
      [
        "om",
        "m"
      ],
      [
        "Ġ1",
        "8"
      ],
      [
        "Ġdo",
        "es"
      ],
      [
        "Ġle",
        "ad"
      ],
      [
        "Ġd",
        "uring"
      ],
      [
        "Ġpart",
        "ic"
      ],
      [
        "l",
        "ed"
      ],
      [
        "g",
        "g"
      ],
      [
        "c",
        "on"
      ],
      [
        "Ġcomm",
        "un"
      ],
      [
        "Ġs",
        "et"
      ],
      [
        "Ġdis",
        "e"
      ],
      [
        "Ġle",
        "vel"
      ],
      [
        "Ġre",
        "qu"
      ],
      [
        "Ġse",
        "c"
      ],
      [
        "ĠP",
        "ro"
      ],
      [
        ".",
        "."
      ],
      [
        "Ġg",
        "ood"
      ],
      [
        "Ġh",
        "ist"
      ],
      [
        "Ġd",
        "ata"
      ],
      [
        "Ġus",
        "ing"
      ],
      [
        "ĠI",
        "f"
      ],
      [
        "ĠThe",
        "y"
      ],
      [
        "ĠA",
        "l"
      ],
      [
        "Ġc",
        "ur"
      ],
      [
        "Ġsh",
        "ow"
      ],
      [
        "Ġpers",
        "on"
      ],
      [
        "Ġa",
        "v"
      ],
      [
        "Ġb",
        "ack"
      ],
      [
        "Ġde",
        "p"
      ],
      [
        "Ġo",
        "wn"
      ],
      [
        "ic",
        "es"
      ],
      [
        "or",
        "k"
      ],
      [
        "v",
        "iron"
      ],
      [
        "Ġg",
        "l"
      ],
      [
        "Ġex",
        "pl"
      ],
      [
        "ak",
        "es"
      ],
      [
        "re",
        "ad"
      ],
      [
        "Ġa",
        "ut"
      ],
      [
        "iz",
        "e"
      ],
      [
        "Ġf",
        "ollow"
      ],
      [
        "Ġm",
        "in"
      ],
      [
        "Ġs",
        "ol"
      ],
      [
        "al",
        "e"
      ],
      [
        "Ġm",
        "y"
      ],
      [
        "Ġsm",
        "all"
      ],
      [
        "w",
        "ard"
      ],
      [
        "an",
        "y"
      ],
      [
        "Ġ",
        "ent"
      ],
      [
        "re",
        "ct"
      ],
      [
        "or",
        "n"
      ],
      [
        "st",
        "and"
      ],
      [
        "Ġm",
        "ade"
      ],
      [
        "erg",
        "y"
      ],
      [
        "ect",
        "ion"
      ],
      [
        "Ġl",
        "ess"
      ],
      [
        "Ġin",
        "s"
      ],
      [
        "Ġt",
        "ake"
      ],
      [
        "Ġd",
        "ay"
      ],
      [
        "Ġd",
        "ist"
      ],
      [
        "Ġl",
        "it"
      ],
      [
        "Ġc",
        "a"
      ],
      [
        "ra",
        "in"
      ],
      [
        "Ġt",
        "reat"
      ],
      [
        "Ġde",
        "f"
      ],
      [
        "i",
        "o"
      ],
      [
        "Ġs",
        "ame"
      ],
      [
        "Ġr",
        "is"
      ],
      [
        "at",
        "her"
      ],
      [
        "Ġp",
        "ar"
      ],
      [
        "Ġst",
        "r"
      ],
      [
        "Ġb",
        "ody"
      ],
      [
        "Ġof",
        "ten"
      ],
      [
        "Ġcomp",
        "le"
      ],
      [
        "ĠR",
        "e"
      ],
      [
        "Ġen",
        "d"
      ],
      [
        "ce",
        "pt"
      ],
      [
        "ĠA",
        "s"
      ],
      [
        "Ġa",
        "round"
      ],
      [
        "Ġ",
        "6"
      ],
      [
        "ivers",
        "ity"
      ],
      [
        "ou",
        "n"
      ],
      [
        "Th",
        "is"
      ],
      [
        "Ġbe",
        "fore"
      ],
      [
        "v",
        "ed"
      ],
      [
        "iz",
        "ed"
      ],
      [
        "Ġp",
        "op"
      ],
      [
        "i",
        "el"
      ],
      [
        "Ġg",
        "rou"
      ],
      [
        "Ġb",
        "oth"
      ],
      [
        "viron",
        "ment"
      ],
      [
        "om",
        "en"
      ],
      [
        "u",
        "nd"
      ],
      [
        "d",
        "ay"
      ],
      [
        "00",
        "0"
      ],
      [
        "im",
        "ate"
      ],
      [
        "ĠA",
        "n"
      ],
      [
        "h",
        "ip"
      ],
      [
        "Ġpro",
        "t"
      ],
      [
        "Ġb",
        "r"
      ],
      [
        "Ġn",
        "ow"
      ],
      [
        "Ġp",
        "o"
      ],
      [
        "ĠH",
        "ow"
      ],
      [
        "Ġv",
        "is"
      ],
      [
        "al",
        "ity"
      ],
      [
        "e",
        "x"
      ],
      [
        "Ġd",
        "own"
      ],
      [
        "ial",
        "ly"
      ],
      [
        "Ġm",
        "ain"
      ],
      [
        "ver",
        "n"
      ],
      [
        "Ġre",
        "f"
      ],
      [
        "Ġf",
        "un"
      ],
      [
        "Ġcl",
        "ass"
      ],
      [
        "i",
        "en"
      ],
      [
        "ĠS",
        "c"
      ],
      [
        "Ġact",
        "iv"
      ],
      [
        "Ġcomm",
        "on"
      ],
      [
        "ut",
        "e"
      ],
      [
        "Ġwh",
        "ile"
      ],
      [
        "id",
        "es"
      ],
      [
        "i",
        "x"
      ],
      [
        "i",
        "qu"
      ],
      [
        "Ġdes",
        "ign"
      ],
      [
        "t",
        "y"
      ],
      [
        "Ġc",
        "ell"
      ],
      [
        "is",
        "hed"
      ],
      [
        "in",
        "ce"
      ],
      [
        "ar",
        "s"
      ],
      [
        "Ġto",
        "o"
      ],
      [
        "Ġnum",
        "ber"
      ],
      [
        "ĠS",
        "p"
      ],
      [
        ",",
        "âĢĿ"
      ],
      [
        "ĠF",
        "or"
      ],
      [
        "Ġst",
        "ate"
      ],
      [
        "t",
        "he"
      ],
      [
        "ro",
        "l"
      ],
      [
        "ĠY",
        "ou"
      ],
      [
        "iet",
        "y"
      ],
      [
        "ĠN",
        "ew"
      ],
      [
        "Ġpl",
        "an"
      ],
      [
        "Ġor",
        "gan"
      ],
      [
        "r",
        "al"
      ],
      [
        "iv",
        "id"
      ],
      [
        "Ġch",
        "ar"
      ],
      [
        "ĠA",
        "r"
      ],
      [
        "Ġha",
        "nd"
      ],
      [
        "Ġp",
        "oss"
      ],
      [
        "oin",
        "t"
      ],
      [
        "iv",
        "ing"
      ],
      [
        "Ġlear",
        "n"
      ],
      [
        "d",
        "er"
      ],
      [
        "o",
        "h"
      ],
      [
        "Ġre",
        "du"
      ],
      [
        "in",
        "al"
      ],
      [
        "d",
        "ition"
      ],
      [
        "âĢ",
        "ľ"
      ],
      [
        "Ġo",
        "cc"
      ],
      [
        "Ġv",
        "al"
      ],
      [
        "oc",
        "k"
      ],
      [
        "Ġth",
        "ree"
      ],
      [
        "ur",
        "y"
      ],
      [
        "id",
        "s"
      ],
      [
        "i",
        "er"
      ],
      [
        "Ġm",
        "a"
      ],
      [
        "Ġs",
        "erv"
      ],
      [
        "ion",
        "al"
      ],
      [
        "Ġp",
        "ower"
      ],
      [
        "u",
        "p"
      ],
      [
        "ĠC",
        "on"
      ],
      [
        "Ġc",
        "le"
      ],
      [
        "Ġm",
        "em"
      ],
      [
        "Ġe",
        "lect"
      ],
      [
        "Ġc",
        "are"
      ],
      [
        "a",
        "ir"
      ],
      [
        "v",
        "es"
      ],
      [
        "Ġd",
        "r"
      ],
      [
        "Ġhum",
        "an"
      ],
      [
        "Ġag",
        "ain"
      ],
      [
        "c",
        "om"
      ],
      [
        "Ġst",
        "art"
      ],
      [
        "g",
        "er"
      ],
      [
        "Ġunder",
        "stand"
      ],
      [
        "ain",
        "s"
      ],
      [
        "Ġs",
        "er"
      ],
      [
        "ter",
        "s"
      ],
      [
        "a",
        "ve"
      ],
      [
        "Ġbe",
        "l"
      ],
      [
        "Ġg",
        "reat"
      ],
      [
        "Ġed",
        "uc"
      ],
      [
        "re",
        "en"
      ],
      [
        "Ġc",
        "ap"
      ],
      [
        "Ġs",
        "om"
      ],
      [
        "it",
        "al"
      ],
      [
        "Ġ1",
        "0"
      ],
      [
        "Ġexam",
        "ple"
      ],
      [
        "g",
        "en"
      ],
      [
        "Ġt",
        "est"
      ],
      [
        "ul",
        "ation"
      ],
      [
        "Ġinclud",
        "ing"
      ],
      [
        "v",
        "ing"
      ],
      [
        "Ġe",
        "as"
      ],
      [
        "v",
        "en"
      ],
      [
        "Ġbu",
        "ild"
      ],
      [
        "ul",
        "l"
      ],
      [
        "act",
        "er"
      ],
      [
        "Ġall",
        "ow"
      ],
      [
        "et",
        "s"
      ],
      [
        "ro",
        "ss"
      ],
      [
        "l",
        "ine"
      ],
      [
        "ra",
        "ph"
      ],
      [
        "i",
        "um"
      ],
      [
        "ater",
        "ial"
      ],
      [
        "Ġknow",
        "n"
      ],
      [
        "om",
        "s"
      ],
      [
        "Ġlar",
        "ge"
      ],
      [
        "c",
        "l"
      ],
      [
        "Ġdise",
        "ase"
      ],
      [
        "ou",
        "se"
      ],
      [
        "ĠI",
        "nd"
      ],
      [
        "Ġad",
        "v"
      ],
      [
        "ĠB",
        "ut"
      ],
      [
        "Ġqu",
        "est"
      ],
      [
        "Ġca",
        "us"
      ],
      [
        "Ġo",
        "p"
      ],
      [
        "2",
        "0"
      ],
      [
        "ul",
        "ts"
      ],
      [
        "Ġcall",
        "ed"
      ],
      [
        "Ġc",
        "our"
      ],
      [
        "Ġen",
        "ergy"
      ],
      [
        "e",
        "e"
      ],
      [
        "us",
        "s"
      ],
      [
        "w",
        "ay"
      ],
      [
        "Ġpro",
        "ject"
      ],
      [
        "our",
        "ces"
      ],
      [
        "d",
        "e"
      ],
      [
        "as",
        "h"
      ],
      [
        "Ġl",
        "and"
      ],
      [
        "Ġd",
        "on"
      ],
      [
        "Ġw",
        "ant"
      ],
      [
        "er",
        "ing"
      ],
      [
        "Ġcont",
        "in"
      ],
      [
        "Ġg",
        "u"
      ],
      [
        "ĠUn",
        "iversity"
      ],
      [
        "Ġb",
        "o"
      ],
      [
        "Ġbe",
        "h"
      ],
      [
        "Ġen",
        "vironment"
      ],
      [
        "Ġch",
        "ange"
      ],
      [
        "Ġst",
        "ill"
      ],
      [
        "m",
        "e"
      ],
      [
        "ar",
        "c"
      ],
      [
        "Ġd",
        "id"
      ],
      [
        "'",
        "t"
      ],
      [
        "Ġen",
        "g"
      ],
      [
        "ou",
        "th"
      ],
      [
        "Ġf",
        "ew"
      ],
      [
        "Ġ",
        "ide"
      ],
      [
        "Ġm",
        "et"
      ],
      [
        "Ġ",
        "7"
      ],
      [
        "Ġm",
        "ust"
      ],
      [
        "Ġsupp",
        "ort"
      ],
      [
        "it",
        "ions"
      ],
      [
        "Ġth",
        "ough"
      ],
      [
        "an",
        "c"
      ],
      [
        "Ġpl",
        "ay"
      ],
      [
        "Ġc",
        "or"
      ],
      [
        "Ġsy",
        "m"
      ],
      [
        "i",
        "ver"
      ],
      [
        "l",
        "ish"
      ],
      [
        "Ġh",
        "ome"
      ],
      [
        "Ġe",
        "qu"
      ],
      [
        "Ġm",
        "ight"
      ],
      [
        "Ġr",
        "ight"
      ],
      [
        "Ġch",
        "ang"
      ],
      [
        "ord",
        "ing"
      ],
      [
        "ect",
        "ed"
      ],
      [
        "Ġpl",
        "ace"
      ],
      [
        "Ġ",
        "est"
      ],
      [
        "el",
        "s"
      ],
      [
        "it",
        "ive"
      ],
      [
        "Ġm",
        "ill"
      ],
      [
        "b",
        "s"
      ],
      [
        "Ġcon",
        "f"
      ],
      [
        "Ġm",
        "aterial"
      ],
      [
        "a",
        "red"
      ],
      [
        "ĠW",
        "h"
      ],
      [
        "ag",
        "n"
      ],
      [
        "ang",
        "u"
      ],
      [
        "Ġpub",
        "lic"
      ],
      [
        "in",
        "ed"
      ],
      [
        "âĢ",
        "Ķ"
      ],
      [
        "ĠThe",
        "re"
      ],
      [
        "Ġprodu",
        "ct"
      ],
      [
        "Ġa",
        "ir"
      ],
      [
        "r",
        "ies"
      ],
      [
        "I",
        "t"
      ],
      [
        "Ġgo",
        "vern"
      ],
      [
        "Ġp",
        "ract"
      ],
      [
        "Ġimp",
        "ro"
      ],
      [
        "Ġ",
        "ve"
      ],
      [
        "Ġm",
        "us"
      ],
      [
        "Ġph",
        "ys"
      ],
      [
        "Ġt",
        "em"
      ],
      [
        "i",
        "red"
      ],
      [
        "Ġ",
        "8"
      ],
      [
        "ĠâĢ",
        "ĺ"
      ],
      [
        "Ġis",
        "s"
      ],
      [
        "ent",
        "ial"
      ],
      [
        "Ġm",
        "at"
      ],
      [
        "sel",
        "f"
      ],
      [
        "Ġpro",
        "f"
      ],
      [
        "ĠE",
        "ng"
      ],
      [
        "i",
        "od"
      ],
      [
        "Ġris",
        "k"
      ],
      [
        "Ġp",
        "ap"
      ],
      [
        "ro",
        "du"
      ],
      [
        ".",
        "\""
      ],
      [
        "a",
        "x"
      ],
      [
        "Ġto",
        "p"
      ],
      [
        "Ġb",
        "re"
      ],
      [
        "Ġan",
        "al"
      ],
      [
        "oc",
        "i"
      ],
      [
        "Ġbl",
        "ood"
      ],
      [
        "en",
        "g"
      ],
      [
        "Ġare",
        "a"
      ],
      [
        "con",
        "om"
      ],
      [
        "iv",
        "en"
      ],
      [
        "ĠThe",
        "se"
      ],
      [
        "igh",
        "ts"
      ],
      [
        "Ġcon",
        "st"
      ],
      [
        "or",
        "ts"
      ],
      [
        "Ġb",
        "en"
      ],
      [
        "Ġinclud",
        "e"
      ],
      [
        "Ġhist",
        "ory"
      ],
      [
        "Ġre",
        "t"
      ],
      [
        "Ġapp",
        "ro"
      ],
      [
        "ere",
        "st"
      ],
      [
        "t",
        "on"
      ],
      [
        "ivid",
        "ual"
      ],
      [
        "ĠA",
        "nd"
      ],
      [
        "a",
        "h"
      ],
      [
        "Ġdevelop",
        "ment"
      ],
      [
        "os",
        "ed"
      ],
      [
        "pt",
        "ion"
      ],
      [
        "Ġst",
        "and"
      ],
      [
        "Ġrep",
        "ort"
      ],
      [
        "Ġw",
        "omen"
      ],
      [
        "in",
        "ess"
      ],
      [
        "Ġb",
        "est"
      ],
      [
        "Ġl",
        "ook"
      ],
      [
        "Ġan",
        "im"
      ],
      [
        "Ġbet",
        "ter"
      ],
      [
        "ff",
        "ic"
      ],
      [
        "in",
        "ation"
      ],
      [
        "Ġprog",
        "ram"
      ],
      [
        "Ġp",
        "ot"
      ],
      [
        "ill",
        "s"
      ],
      [
        "er",
        "c"
      ],
      [
        "Ġpres",
        "ent"
      ],
      [
        "Ġsc",
        "ient"
      ],
      [
        "Ġke",
        "ep"
      ],
      [
        "b",
        "ers"
      ],
      [
        "ĠR",
        "es"
      ],
      [
        "ent",
        "al"
      ],
      [
        "W",
        "hat"
      ],
      [
        "Ġ",
        "ident"
      ],
      [
        "Ġp",
        "ain"
      ],
      [
        "g",
        "in"
      ],
      [
        "Ġl",
        "ight"
      ],
      [
        "ĠAmeric",
        "an"
      ],
      [
        "our",
        "ce"
      ],
      [
        "ren",
        "ce"
      ],
      [
        "Ġm",
        "eth"
      ],
      [
        "Ġlear",
        "ning"
      ],
      [
        "Ġs",
        "l"
      ],
      [
        "r",
        "ation"
      ],
      [
        "Ġim",
        "m"
      ],
      [
        "at",
        "s"
      ],
      [
        "Ġs",
        "it"
      ],
      [
        "Ġp",
        "ur"
      ],
      [
        "|",
        "|"
      ],
      [
        "Ġres",
        "ult"
      ],
      [
        "Ġwith",
        "out"
      ],
      [
        "s",
        "c"
      ],
      [
        "Ġc",
        "ause"
      ],
      [
        "Ġdi",
        "rect"
      ],
      [
        "Ġb",
        "as"
      ],
      [
        "as",
        "on"
      ],
      [
        "s",
        "p"
      ],
      [
        "Ġan",
        "other"
      ],
      [
        "Ġbec",
        "ome"
      ],
      [
        "at",
        "ural"
      ],
      [
        "Ġwith",
        "in"
      ],
      [
        "ert",
        "ain"
      ],
      [
        "i",
        "or"
      ],
      [
        "en",
        "se"
      ],
      [
        "t",
        "t"
      ],
      [
        "Ġper",
        "cent"
      ],
      [
        "Ġh",
        "im"
      ],
      [
        "Ġ",
        "9"
      ],
      [
        "if",
        "y"
      ],
      [
        "1",
        "9"
      ],
      [
        "Ġs",
        "ays"
      ],
      [
        "n",
        "er"
      ],
      [
        "e",
        "ad"
      ],
      [
        "iel",
        "d"
      ],
      [
        "Ġhe",
        "re"
      ],
      [
        "Ġind",
        "ividual"
      ],
      [
        "Ġfam",
        "ily"
      ],
      [
        "Ġo",
        "ld"
      ],
      [
        "in",
        "c"
      ],
      [
        "or",
        "th"
      ],
      [
        "im",
        "e"
      ],
      [
        "l",
        "ess"
      ],
      [
        "iz",
        "ation"
      ],
      [
        "j",
        "or"
      ],
      [
        "Ġ",
        "&"
      ],
      [
        "w",
        "ays"
      ],
      [
        "Ġt",
        "re"
      ],
      [
        "Ġav",
        "ail"
      ],
      [
        "Ġp",
        "os"
      ],
      [
        "Ġpro",
        "per"
      ],
      [
        "Ġha",
        "pp"
      ],
      [
        "Ġsoc",
        "ial"
      ],
      [
        "Ġint",
        "erest"
      ],
      [
        "Ġde",
        "m"
      ],
      [
        "l",
        "ished"
      ],
      [
        "ĠâĢ",
        "Ķ"
      ],
      [
        ",",
        "\""
      ],
      [
        "Ġme",
        "as"
      ],
      [
        "Ġbel",
        "ie"
      ],
      [
        "t",
        "o"
      ],
      [
        "or",
        "ies"
      ],
      [
        "Ġprov",
        "ide"
      ],
      [
        "Ġpl",
        "ant"
      ],
      [
        "og",
        "raph"
      ],
      [
        "Ġp",
        "ass"
      ],
      [
        "id",
        "er"
      ],
      [
        "ent",
        "ly"
      ],
      [
        "Ġan",
        "t"
      ],
      [
        "Ġspec",
        "ies"
      ],
      [
        "he",
        "re"
      ],
      [
        "Ġab",
        "le"
      ],
      [
        "Ġess",
        "ay"
      ],
      [
        "Ġear",
        "ly"
      ],
      [
        "m",
        "an"
      ],
      [
        "Ġl",
        "ow"
      ],
      [
        "Ġc",
        "ult"
      ],
      [
        "r",
        "is"
      ],
      [
        "Ġse",
        "ver"
      ],
      [
        "es",
        "p"
      ],
      [
        "Ġl",
        "ast"
      ],
      [
        "an",
        "k"
      ],
      [
        "ĠI",
        "s"
      ],
      [
        "Ġl",
        "angu"
      ],
      [
        "Ġa",
        "ffect"
      ],
      [
        "Ġde",
        "v"
      ],
      [
        "a",
        "ren"
      ],
      [
        "Ġwe",
        "e"
      ],
      [
        "W",
        "e"
      ],
      [
        "er",
        "al"
      ],
      [
        "Ġre",
        "st"
      ],
      [
        "e",
        "red"
      ],
      [
        "h",
        "or"
      ],
      [
        "u",
        "se"
      ],
      [
        "Ġdes",
        "c"
      ],
      [
        "cc",
        "ess"
      ],
      [
        "Ġfe",
        "el"
      ],
      [
        "ab",
        "ility"
      ],
      [
        "Ġm",
        "ove"
      ],
      [
        "Ġocc",
        "ur"
      ],
      [
        "ĠD",
        "e"
      ],
      [
        "Ġe",
        "conom"
      ],
      [
        "ic",
        "le"
      ],
      [
        "olog",
        "ical"
      ],
      [
        "ĠP",
        "h"
      ],
      [
        "Ġmeth",
        "od"
      ],
      [
        "v",
        "iew"
      ],
      [
        "Ġw",
        "ar"
      ],
      [
        "Ġme",
        "ans"
      ],
      [
        "if",
        "ied"
      ],
      [
        "Ġgrou",
        "p"
      ],
      [
        "u",
        "g"
      ],
      [
        "ra",
        "p"
      ],
      [
        "iv",
        "ed"
      ],
      [
        "Ġm",
        "ar"
      ],
      [
        "Ġc",
        "al"
      ],
      [
        "Ġcont",
        "rol"
      ],
      [
        "ĠA",
        "d"
      ],
      [
        "Ġo",
        "pp"
      ],
      [
        "Ġpre",
        "vent"
      ],
      [
        "Ġne",
        "ar"
      ],
      [
        "Ġb",
        "us"
      ],
      [
        "Ġre",
        "al"
      ],
      [
        "pl",
        "es"
      ],
      [
        "Ġs",
        "ay"
      ],
      [
        "Ġe",
        "le"
      ],
      [
        "ard",
        "s"
      ],
      [
        "at",
        "ic"
      ],
      [
        "c",
        "le"
      ],
      [
        "Ġben",
        "ef"
      ],
      [
        "i",
        "ents"
      ],
      [
        "Ġm",
        "ark"
      ],
      [
        "ĠW",
        "hen"
      ],
      [
        "at",
        "or"
      ],
      [
        "Ġavail",
        "able"
      ],
      [
        "ĠS",
        "h"
      ],
      [
        "Ġme",
        "an"
      ],
      [
        "Ġma",
        "jor"
      ],
      [
        "Ġf",
        "ree"
      ],
      [
        "Ġth",
        "ings"
      ],
      [
        "Ġsec",
        "ond"
      ],
      [
        "Ġposs",
        "ible"
      ],
      [
        "t",
        "ain"
      ],
      [
        "Ġle",
        "g"
      ],
      [
        "Ġf",
        "ore"
      ],
      [
        "ĠE",
        "x"
      ],
      [
        "Ġth",
        "ink"
      ],
      [
        "o",
        "id"
      ],
      [
        "er",
        "n"
      ],
      [
        "Ġl",
        "ist"
      ],
      [
        "Ġin",
        "du"
      ],
      [
        "p",
        "ar"
      ],
      [
        "Ġor",
        "der"
      ],
      [
        "ĠC",
        "ol"
      ],
      [
        "ot",
        "s"
      ],
      [
        "Ġsever",
        "al"
      ],
      [
        "Ġcur",
        "rent"
      ],
      [
        "Ġrese",
        "arc"
      ],
      [
        "Ġinf",
        "l"
      ],
      [
        "i",
        "ans"
      ],
      [
        "Ġm",
        "il"
      ],
      [
        "e",
        "g"
      ],
      [
        "Ġcomp",
        "ut"
      ],
      [
        "Ġb",
        "ir"
      ],
      [
        "_",
        "_"
      ],
      [
        "Ġare",
        "as"
      ],
      [
        "I",
        "f"
      ],
      [
        "oc",
        "us"
      ],
      [
        "Ġper",
        "form"
      ],
      [
        "in",
        "ing"
      ],
      [
        "Ġtim",
        "es"
      ],
      [
        "Ġdif",
        "f"
      ],
      [
        "ĠW",
        "hat"
      ],
      [
        "Ġop",
        "en"
      ],
      [
        "a",
        "z"
      ],
      [
        "Ġa",
        "ge"
      ],
      [
        "ĠC",
        "l"
      ],
      [
        "ot",
        "e"
      ],
      [
        "Ġpartic",
        "ular"
      ],
      [
        "Ġhe",
        "ad"
      ],
      [
        "og",
        "n"
      ],
      [
        "os",
        "p"
      ],
      [
        "is",
        "ion"
      ],
      [
        "Ġproble",
        "ms"
      ],
      [
        "Ġh",
        "ard"
      ],
      [
        "Ġinv",
        "ol"
      ],
      [
[...]
